{
  "version": "1.0",
  "truncation": null,
  "padding": null,
  "added_tokens": [
    {
      "id": 0,
      "content": "[PAD]",
      "single_word": false,
      "lstrip": false,
      "rstrip": false,
      "normalized": false,
      "special": true
    },
    {
      "id": 1,
      "content": "[UNK]",
      "single_word": false,
      "lstrip": false,
      "rstrip": false,
      "normalized": false,
      "special": true
    },
    {
      "id": 2,
      "content": "[CLS]",
      "single_word": false,
      "lstrip": false,
      "rstrip": false,
      "normalized": false,
      "special": true
    },
    {
      "id": 3,
      "content": "[SEP]",
      "single_word": false,
      "lstrip": false,
      "rstrip": false,
      "normalized": false,
      "special": true
    },
    {
      "id": 4,
      "content": "[MASK]",
      "single_word": false,
      "lstrip": false,
      "rstrip": false,
      "normalized": false,
      "special": true
    }
  ],
  "normalizer": null,
  "pre_tokenizer": {
    "type": "ByteLevel",
    "add_prefix_space": false,
    "trim_offsets": true,
    "use_regex": true
  },
  "post_processor": null,
  "decoder": null,
  "model": {
    "type": "BPE",
    "dropout": null,
    "unk_token": "[UNK]",
    "continuing_subword_prefix": null,
    "end_of_word_suffix": null,
    "fuse_unk": false,
    "byte_fallback": false,
    "ignore_merges": false,
    "vocab": {
      "[PAD]": 0,
      "[UNK]": 1,
      "[CLS]": 2,
      "[SEP]": 3,
      "[MASK]": 4,
      "-": 5,
      ".": 6,
      "/": 7,
      "0": 8,
      "1": 9,
      "2": 10,
      "3": 11,
      "4": 12,
      "5": 13,
      "6": 14,
      "7": 15,
      "8": 16,
      "9": 17,
      "H": 18,
      "M": 19,
      "_": 20,
      "a": 21,
      "b": 22,
      "c": 23,
      "d": 24,
      "e": 25,
      "f": 26,
      "g": 27,
      "h": 28,
      "i": 29,
      "j": 30,
      "k": 31,
      "l": 32,
      "m": 33,
      "n": 34,
      "o": 35,
      "p": 36,
      "q": 37,
      "r": 38,
      "s": 39,
      "t": 40,
      "u": 41,
      "v": 42,
      "w": 43,
      "x": 44,
      "y": 45,
      "z": 46,
      "es": 47,
      "est": 48,
      "py": 49,
      "test": 50,
      "ar": 51,
      "al": 52,
      "ri": 53,
      "ut": 54,
      "le": 55,
      "in": 56,
      "on": 57,
      "tests": 58,
      "ori": 59,
      "tut": 60,
      "orial": 61,
      "tutorial": 62,
      "/_": 63,
      "sk": 64,
      "at": 65,
      "arn": 66,
      "learn": 67,
      "sklearn": 68,
      "er": 69,
      "en": 70,
      "pl": 71,
      "am": 72,
      "ion": 73,
      "ex": 74,
      "oc": 75,
      "rc": 76,
      "se": 77,
      "src": 78,
      "00": 79,
      "st": 80,
      "doc": 81,
      "it": 82,
      "re": 83,
      "docs": 84,
      "de": 85,
      "ing": 86,
      "an": 87,
      "exam": 88,
      "10": 89,
      "310": 90,
      "init": 91,
      "ap": 92,
      "co": 93,
      "ot": 94,
      "/__": 95,
      "_.": 96,
      "__.": 97,
      "plot": 98,
      "ples": 99,
      "par": 100,
      "examples": 101,
      "ation": 102,
      "or": 103,
      "mo": 104,
      "ts": 105,
      "fi": 106,
      "ls": 107,
      "mode": 108,
      "res": 109,
      "ct": 110,
      "enc": 111,
      "qu": 112,
      "param": 113,
      "ra": 114,
      "sc": 115,
      "cl": 116,
      "as": 117,
      "ext": 118,
      "testing": 119,
      "001": 120,
      "api": 121,
      "params": 122,
      "pen": 123,
      "ust": 124,
      "com": 125,
      "model": 126,
      "dat": 127,
      "ils": 128,
      "utils": 129,
      "con": 130,
      "ty": 131,
      "di": 132,
      "data": 133,
      "ro": 134,
      "id": 135,
      "ple": 136,
      "pon": 137,
      "pat": 138,
      "bo": 139,
      "he": 140,
      "rip": 141,
      "respon": 142,
      "ig": 143,
      "lin": 144,
      "me": 145,
      "ction": 146,
      "benc": 147,
      "ne": 148,
      "bench": 149,
      "requ": 150,
      "scrip": 151,
      "ic": 152,
      "ks": 153,
      "ations": 154,
      "request": 155,
      "scripts": 156,
      "app": 157,
      "ass": 158,
      "response": 159,
      "igh": 160,
      "ad": 161,
      "002": 162,
      "ear": 163,
      "example": 164,
      "tu": 165,
      "ent": 166,
      "om": 167,
      "ce": 168,
      "fa": 169,
      "cu": 170,
      "depen": 171,
      "depend": 172,
      "linear": 173,
      "dependenc": 174,
      "clust": 175,
      "ble": 176,
      "val": 177,
      "mar": 178,
      "xtu": 179,
      "pytest": 180,
      "cluster": 181,
      "ag": 182,
      "003": 183,
      "un": 184,
      "path": 185,
      "ery": 186,
      "sem": 187,
      "per": 188,
      "query": 189,
      "nal": 190,
      "pe": 191,
      "valid": 192,
      "extra": 193,
      "marks": 194,
      "ba": 195,
      "ernal": 196,
      "ition": 197,
      "dy": 198,
      "sv": 199,
      "us": 200,
      "body": 201,
      "ors": 202,
      "benchmarks": 203,
      "ld": 204,
      "pr": 205,
      "ti": 206,
      "tion": 207,
      "str": 208,
      "external": 209,
      "externals": 210,
      "class": 211,
      "arra": 212,
      "models": 213,
      "met": 214,
      "array": 215,
      "ed": 216,
      "open": 217,
      "su": 218,
      "ies": 219,
      "lection": 220,
      "ensem": 221,
      "fixtu": 222,
      "svm": 223,
      "ensemble": 224,
      "ist": 225,
      "po": 226,
      "ric": 227,
      "rity": 228,
      "secu": 229,
      "selection": 230,
      "security": 231,
      "cust": 232,
      "custom": 233,
      "fast": 234,
      "validations": 235,
      "for": 236,
      "im": 237,
      "ance": 238,
      "is": 239,
      "ul": 240,
      "ma": 241,
      "th": 242,
      "ve": 243,
      "ure": 244,
      "ess": 245,
      "ck": 246,
      "fig": 247,
      "config": 248,
      "dependencies": 249,
      "ost": 250,
      "lo": 251,
      "fe": 252,
      "la": 253,
      "ur": 254,
      "compo": 255,
      "pre": 256,
      "fixtures": 257,
      "004": 258,
      "and": 259,
      "conf": 260,
      "typ": 261,
      "datase": 262,
      "pyx": 263,
      "ans": 264,
      "datasets": 265,
      "cal": 266,
      "te": 267,
      "fil": 268,
      "feat": 269,
      "fastapi": 270,
      "ch": 271,
      "boost": 272,
      "metric": 273,
      "openapi": 274,
      "thon": 275,
      "feature": 276,
      "bors": 277,
      "ate": 278,
      "ocess": 279,
      "ree": 280,
      "neigh": 281,
      "process": 282,
      "conftest": 283,
      "metrics": 284,
      "neighbors": 285,
      "sition": 286,
      "decompo": 287,
      "form": 288,
      "decomposition": 289,
      "ht": 290,
      "mul": 291,
      "op": 292,
      "ver": 293,
      "boosting": 294,
      "01": 295,
      "gra": 296,
      "js": 297,
      "compat": 298,
      "head": 299,
      "header": 300,
      "fo": 301,
      "ib": 302,
      "python": 303,
      "dient": 304,
      "gradient": 305,
      "tree": 306,
      "005": 307,
      "code": 308,
      "multi": 309,
      "mi": 310,
      "ml": 311,
      "types": 312,
      "gr": 313,
      "mon": 314,
      "ting": 315,
      "rout": 316,
      "ter": 317,
      "006": 318,
      "sche": 319,
      "ie": 320,
      "ise": 321,
      "sion": 322,
      "ui": 323,
      "err": 324,
      "set": 325,
      "stat": 326,
      "main": 327,
      "ok": 328,
      "tr": 329,
      "var": 330,
      "lea": 331,
      "ents": 332,
      "call": 333,
      "hist": 334,
      "pro": 335,
      "plic": 336,
      "des": 337,
      "nu": 338,
      "oper": 339,
      "relea": 340,
      "back": 341,
      "release": 342,
      "el": 343,
      "ligh": 344,
      "si": 345,
      "cook": 346,
      "configur": 347,
      "operation": 348,
      "fla": 349,
      "ge": 350,
      "ly": 351,
      "spe": 352,
      "applic": 353,
      "dependency": 354,
      "age": 355,
      "base": 356,
      "vari": 357,
      "flask": 358,
      "ca": 359,
      "dition": 360,
      "ke": 361,
      "lib": 362,
      "man": 363,
      "common": 364,
      "tional": 365,
      "optional": 366,
      "applications": 367,
      "ditional": 368,
      "aut": 369,
      "put": 370,
      "files": 371,
      "high": 372,
      "end": 373,
      "reg": 374,
      "preprocess": 375,
      "highligh": 376,
      "preprocessing": 377,
      "ifi": 378,
      "we": 379,
      "war": 380,
      "rin": 381,
      "008": 382,
      "sub": 383,
      "fold": 384,
      "variance": 385,
      "mani": 386,
      "highlights": 387,
      "px": 388,
      "ss": 389,
      "compar": 390,
      "additional": 391,
      "anced": 392,
      "tings": 393,
      "settings": 394,
      "trans": 395,
      "ger": 396,
      "ho": 397,
      "vanced": 398,
      "pla": 399,
      "cli": 400,
      "dataclass": 401,
      "advanced": 402,
      "meta": 403,
      "cookie": 404,
      "manifold": 405,
      "du": 406,
      "ga": 407,
      "to": 408,
      "up": 409,
      "wor": 410,
      "covariance": 411,
      "schema": 412,
      "callback": 413,
      "auth": 414,
      "pxd": 415,
      "der": 416,
      "fun": 417,
      "pa": 418,
      "por": 419,
      "sg": 420,
      "rect": 421,
      "col": 422,
      "ression": 423,
      "direct": 424,
      "requests": 425,
      "asser": 426,
      "status": 427,
      "dataclasses": 428,
      "bl": 429,
      "cation": 430,
      "ev": 431,
      "ive": 432,
      "ment": 433,
      "nest": 434,
      "spar": 435,
      "inspe": 436,
      "type": 437,
      "hel": 438,
      "cur": 439,
      "ussi": 440,
      "classifi": 441,
      "play": 442,
      "gaussi": 443,
      "events": 444,
      "nested": 445,
      "inspection": 446,
      "gaussian": 447,
      "dle": 448,
      "gen": 449,
      "git": 450,
      "hin": 451,
      "mid": 452,
      "xture": 453,
      "mixture": 454,
      "regression": 455,
      "ware": 456,
      "dleware": 457,
      "middleware": 458,
      "che": 459,
      "ker": 460,
      "lation": 461,
      "ses": 462,
      "vise": 463,
      "responses": 464,
      "meric": 465,
      "cep": 466,
      "pervise": 467,
      "supervise": 468,
      "json": 469,
      "error": 470,
      "numeric": 471,
      "assertion": 472,
      "sparse": 473,
      "classification": 474,
      "gener": 475,
      "kerne": 476,
      "supervised": 477,
      "02": 478,
      "ask": 479,
      "hand": 480,
      "list": 481,
      "min": 482,
      "pca": 483,
      "ug": 484,
      "wri": 485,
      "inte": 486,
      "erver": 487,
      "fix": 488,
      "means": 489,
      "net": 490,
      "apps": 491,
      "openml": 492,
      "log": 493,
      "fill": 494,
      "gration": 495,
      "compare": 496,
      "metadata": 497,
      "port": 498,
      "integration": 499,
      "bi": 500,
      "bui": 501,
      "db": 502,
      "ff": 503,
      "gl": 504,
      "io": 505,
      "mp": 506,
      "vs": 507,
      "lect": 508,
      "ane": 509,
      "unit": 510,
      "multiple": 511,
      "web": 512,
      "build": 513,
      "bas": 514,
      "sco": 515,
      "tp": 516,
      "arg": 517,
      "arch": 518,
      "separ": 519,
      "007": 520,
      "dict": 521,
      "html": 522,
      "http": 523,
      "route": 524,
      "errors": 525,
      "desc": 526,
      "ell": 527,
      "configuration": 528,
      "func": 529,
      "gro": 530,
      "ous": 531,
      "rand": 532,
      "sw": 533,
      "server": 534,
      "tic": 535,
      "stre": 536,
      "repr": 537,
      "aph": 538,
      "ory": 539,
      "scan": 540,
      "image": 541,
      "imput": 542,
      "graph": 543,
      "configurations": 544,
      "key": 545,
      "collect": 546,
      "generate": 547,
      "kernel": 548,
      "dbscan": 549,
      "stream": 550,
      "able": 551,
      "ds": 552,
      "ep": 553,
      "ging": 554,
      "ling": 555,
      "no": 556,
      "out": 557,
      "ols": 558,
      "ql": 559,
      "sam": 560,
      "sent": 561,
      "text": 562,
      "estim": 563,
      "ali": 564,
      "rid": 565,
      "ated": 566,
      "enco": 567,
      "excep": 568,
      "009": 569,
      "scell": 570,
      "neur": 571,
      "semi": 572,
      "extraction": 573,
      "fixture": 574,
      "loss": 575,
      "typing": 576,
      "forms": 577,
      "miscell": 578,
      "router": 579,
      "get": 580,
      "ring": 581,
      "handling": 582,
      "networ": 583,
      "aneous": 584,
      "encoder": 585,
      "neural": 586,
      "miscellaneous": 587,
      "03": 588,
      "be": 589,
      "mat": 590,
      "mpl": 591,
      "ures": 592,
      "warn": 593,
      "zation": 594,
      "ash": 595,
      "asv": 596,
      "new": 597,
      "templ": 598,
      "num": 599,
      "translation": 600,
      "tools": 601,
      "estimat": 602,
      "exception": 603,
      "big": 604,
      "cks": 605,
      "fro": 606,
      "ght": 607,
      "lass": 608,
      "mas": 609,
      "nc": 610,
      "ration": 611,
      "soc": 612,
      "task": 613,
      "va": 614,
      "wise": 615,
      "xy": 616,
      "ync": 617,
      "search": 618,
      "async": 619,
      "extend": 620,
      "digit": 621,
      "ription": 622,
      "agger": 623,
      "validation": 624,
      "stru": 625,
      "forest": 626,
      "compose": 627,
      "schemas": 628,
      "proxy": 629,
      "kets": 630,
      "libsvm": 631,
      "pack": 632,
      "mental": 633,
      "helper": 634,
      "playwri": 635,
      "hind": 636,
      "fixer": 637,
      "unittest": 638,
      "websoc": 639,
      "separate": 640,
      "description": 641,
      "random": 642,
      "swagger": 643,
      "impute": 644,
      "behind": 645,
      "digits": 646,
      "playwright": 647,
      "websockets": 648,
      "ava": 649,
      "by": 650,
      "bel": 651,
      "ces": 652,
      "cro": 653,
      "fr": 654,
      "hdbscan": 655,
      "ip": 656,
      "ir": 657,
      "ial": 658,
      "not": 659,
      "nost": 660,
      "oauth": 661,
      "sp": 662,
      "ze": 663,
      "ler": 664,
      "plug": 665,
      "file": 666,
      "date": 667,
      "agnost": 668,
      "und": 669,
      "label": 670,
      "clients": 671,
      "check": 672,
      "warning": 673,
      "bigger": 674,
      "lasso": 675,
      "struct": 676,
      "cross": 677,
      "plugin": 678,
      "agnostic": 679,
      "dan": 680,
      "hu": 681,
      "il": 682,
      "kmeans": 683,
      "mis": 684,
      "sql": 685,
      "pydan": 686,
      "ont": 687,
      "stri": 688,
      "ity": 689,
      "modu": 690,
      "dis": 691,
      "databas": 692,
      "ical": 693,
      "calib": 694,
      "directly": 695,
      "curve": 696,
      "glm": 697,
      "funcarg": 698,
      "ridge": 699,
      "network": 700,
      "templat": 701,
      "hub": 702,
      "pydantic": 703,
      "module": 704,
      "databases": 705,
      "calibration": 706,
      "010": 707,
      "bear": 708,
      "ire": 709,
      "mn": 710,
      "ner": 711,
      "ol": 712,
      "pp": 713,
      "pag": 714,
      "tar": 715,
      "expe": 716,
      "rch": 717,
      "setu": 718,
      "recur": 719,
      "annot": 720,
      "ence": 721,
      "parame": 722,
      "dir": 723,
      "disc": 724,
      "require": 725,
      "appro": 726,
      "faul": 727,
      "issu": 728,
      "vect": 729,
      "lable": 730,
      "prec": 731,
      "propag": 732,
      "liblinear": 733,
      "hoo": 734,
      "output": 735,
      "helpers": 736,
      "front": 737,
      "plugins": 738,
      "display": 739,
      "bearer": 740,
      "required": 741,
      "frontend": 742,
      "_/": 743,
      "cy": 744,
      "eld": 745,
      "gpr": 746,
      "hash": 747,
      "iri": 748,
      "mm": 749,
      "mut": 750,
      "mur": 751,
      "nam": 752,
      "rst": 753,
      "spl": 754,
      "zen": 755,
      "rimental": 756,
      "info": 757,
      "onic": 758,
      "ocks": 759,
      "string": 760,
      "otonic": 761,
      "field": 762,
      "first": 763,
      "cont": 764,
      "line": 765,
      "ight": 766,
      "backs": 767,
      "istic": 768,
      "customdirect": 769,
      "import": 770,
      "vel": 771,
      "configure": 772,
      "version": 773,
      "011": 774,
      "multiclass": 775,
      "ters": 776,
      "callbacks": 777,
      "backgro": 778,
      "sive": 779,
      "weight": 780,
      "rint": 781,
      "cliapp": 782,
      "pair": 783,
      "sgd": 784,
      "blocks": 785,
      "hinx": 786,
      "logistic": 787,
      "bicluster": 788,
      "alias": 789,
      "frozen": 790,
      "tasks": 791,
      "sphinx": 792,
      "warnings": 793,
      "target": 794,
      "experimental": 795,
      "approx": 796,
      "propagation": 797,
      "hooks": 798,
      "iris": 799,
      "split": 800,
      "customdirectory": 801,
      "background": 802,
      "pairwise": 803,
      "bug": 804,
      "cre": 805,
      "em": 806,
      "fit": 807,
      "hi": 808,
      "hal": 809,
      "ipe": 810,
      "ilable": 811,
      "king": 812,
      "pc": 813,
      "pport": 814,
      "sing": 815,
      "sor": 816,
      "tes": 817,
      "tra": 818,
      "uep": 819,
      "wit": 820,
      "yes": 821,
      "alg": 822,
      "level": 823,
      "only": 824,
      "skip": 825,
      "ative": 826,
      "erative": 827,
      "sequ": 828,
      "step": 829,
      "defaul": 830,
      "debug": 831,
      "ances": 832,
      "parti": 833,
      "order": 834,
      "clu": 835,
      "comple": 836,
      "link": 837,
      "linalg": 838,
      "face": 839,
      "aggl": 840,
      "union": 841,
      "bayes": 842,
      "lda": 843,
      "support": 844,
      "ison": 845,
      "ision": 846,
      "predict": 847,
      "headers": 848,
      "cookies": 849,
      "comparison": 850,
      "transform": 851,
      "bluep": 852,
      "github": 853,
      "scope": 854,
      "match": 855,
      "numpy": 856,
      "estimators": 857,
      "available": 858,
      "mismatch": 859,
      "strict": 860,
      "templates": 861,
      "setup": 862,
      "issue": 863,
      "fields": 864,
      "content": 865,
      "sphinxext": 866,
      "partial": 867,
      "agglom": 868,
      "af": 869,
      "but": 870,
      "ber": 871,
      "dul": 872,
      "dask": 873,
      "ering": 874,
      "gmm": 875,
      "gpc": 876,
      "idate": 877,
      "je": 878,
      "loc": 879,
      "mal": 880,
      "mds": 881,
      "non": 882,
      "ob": 883,
      "ou": 884,
      "over": 885,
      "pes": 886,
      "pipe": 887,
      "ral": 888,
      "run": 889,
      "tri": 890,
      "the": 891,
      "ving": 892,
      "ws": 893,
      "wsg": 894,
      "yie": 895,
      "zer": 896,
      "aly": 897,
      "ind": 898,
      "inf": 899,
      "inter": 900,
      "inner": 901,
      "inclu": 902,
      "enable": 903,
      "ions": 904,
      "stic": 905,
      "redu": 906,
      "deprec": 907,
      "cor": 908,
      "codes": 909,
      "modul": 910,
      "resho": 911,
      "ctral": 912,
      "rais": 913,
      "dates": 914,
      "context": 915,
      "dist": 916,
      "roup": 917,
      "omial": 918,
      "cupy": 919,
      "dependence": 920,
      "validate": 921,
      "mark": 922,
      "using": 923,
      "poly": 924,
      "thresho": 925,
      "012": 926,
      "013": 927,
      "foo": 928,
      "routing": 929,
      "static": 930,
      "spectral": 931,
      "subdir": 932,
      "torch": 933,
      "updates": 934,
      "function": 935,
      "sgroup": 936,
      "logging": 937,
      "basic": 938,
      "scopes": 939,
      "same": 940,
      "samples": 941,
      "newsgroup": 942,
      "number": 943,
      "estimator": 944,
      "bytes": 945,
      "structures": 946,
      "funcargs": 947,
      "recursive": 948,
      "name": 949,
      "approxim": 950,
      "halving": 951,
      "with": 952,
      "debugging": 953,
      "transformer": 954,
      "wsgi": 955,
      "yield": 956,
      "reduction": 957,
      "deprecated": 958,
      "modules": 959,
      "threshold": 960,
      "newsgroups": 961,
      "20": 962,
      "64": 963,
      "ac": 964,
      "bal": 965,
      "bin": 966,
      "cc": 967,
      "cpp": 968,
      "den": 969,
      "emp": 970,
      "free": 971,
      "gres": 972,
      "kg": 973,
      "kde": 974,
      "lf": 975,
      "mf": 976,
      "nca": 977,
      "nomial": 978,
      "nmf": 979,
      "pd": 980,
      "ping": 981,
      "pkg": 982,
      "roc": 983,
      "sis": 984,
      "sol": 985,
      "vie": 986,
      "arest": 987,
      "int": 988,
      "ator": 989,
      "learning": 990,
      "sta": 991,
      "reti": 992,
      "dete": 993,
      "ange": 994,
      "analy": 995,
      "part": 996,
      "conne": 997,
      "ider": 998,
      "lines": 999,
      "nearest": 1000,
      "script": 1001,
      "celer": 1002,
      "fact": 1003,
      "uni": 1004,
      "permut": 1005,
      "time": 1006,
      "succ": 1007,
      "isotonic": 1008,
      "essive": 1009,
      "lof": 1010,
      "low": 1011,
      "change": 1012,
      "multioutput": 1013,
      "termin": 1014,
      "stats": 1015,
      "tron": 1016,
      "ified": 1017,
      "ward": 1018,
      "blas": 1019,
      "hello": 1020,
      "fft": 1021,
      "webhooks": 1022,
      "funcs": 1023,
      "group": 1024,
      "packag": 1025,
      "package": 1026,
      "structure": 1027,
      "mnist": 1028,
      "discreti": 1029,
      "cython": 1030,
      "stringified": 1031,
      "importance": 1032,
      "aliases": 1033,
      "sorting": 1034,
      "train": 1035,
      "steps": 1036,
      "default": 1037,
      "pipeline": 1038,
      "include": 1039,
      "cors": 1040,
      "distances": 1041,
      "polynomial": 1042,
      "approximation": 1043,
      "freeze": 1044,
      "solver": 1045,
      "analysis": 1046,
      "celery": 1047,
      "permutation": 1048,
      "successive": 1049,
      "terminal": 1050,
      "discretization": 1051,
      "05": 1052,
      "11": 1053,
      "bm": 1054,
      "bit": 1055,
      "bust": 1056,
      "ci": 1057,
      "cap": 1058,
      "cent": 1059,
      "cision": 1060,
      "ding": 1061,
      "grid": 1062,
      "ha": 1063,
      "ipy": 1064,
      "java": 1065,
      "kd": 1066,
      "li": 1067,
      "lity": 1068,
      "moc": 1069,
      "mess": 1070,
      "mory": 1071,
      "pass": 1072,
      "rfe": 1073,
      "sh": 1074,
      "sess": 1075,
      "tw": 1076,
      "tag": 1077,
      "ted": 1078,
      "tmp": 1079,
      "umn": 1080,
      "vot": 1081,
      "wr": 1082,
      "alle": 1083,
      "rix": 1084,
      "rimin": 1085,
      "incre": 1086,
      "orization": 1087,
      "orizer": 1088,
      "eration": 1089,
      "erarch": 1090,
      "exp": 1091,
      "exing": 1092,
      "rce": 1093,
      "seri": 1094,
      "stoc": 1095,
      "doctest": 1096,
      "item": 1097,
      "iterative": 1098,
      "ref": 1099,
      "read": 1100,
      "redirect": 1101,
      "rewri": 1102,
      "def": 1103,
      "decision": 1104,
      "ang": 1105,
      "anti": 1106,
      "inite": 1107,
      "ency": 1108,
      "quanti": 1109,
      "scal": 1110,
      "scipy": 1111,
      "cons": 1112,
      "conditional": 1113,
      "diff": 1114,
      "robust": 1115,
      "patch": 1116,
      "links": 1117,
      "memory": 1118,
      "ica": 1119,
      "ication": 1120,
      "entication": 1121,
      "omp": 1122,
      "fail": 1123,
      "clustering": 1124,
      "svd": 1125,
      "user": 1126,
      "timi": 1127,
      "prefix": 1128,
      "format": 1129,
      "optimi": 1130,
      "014": 1131,
      "gram": 1132,
      "maint": 1133,
      "light": 1134,
      "flaskr": 1135,
      "cache": 1136,
      "metaestimators": 1137,
      "words": 1138,
      "authorization": 1139,
      "authentication": 1140,
      "column": 1141,
      "help": 1142,
      "checks": 1143,
      "kernels": 1144,
      "handler": 1145,
      "bility": 1146,
      "graphql": 1147,
      "nodes": 1148,
      "networks": 1149,
      "matrix": 1150,
      "exceptions": 1151,
      "from": 1152,
      "extending": 1153,
      "pprint": 1154,
      "parameter": 1155,
      "parameters": 1156,
      "discrimin": 1157,
      "vector": 1158,
      "vectorizer": 1159,
      "versions": 1160,
      "rintapp": 1161,
      "hierarch": 1162,
      "sequence": 1163,
      "blueprintapp": 1164,
      "agglomeration": 1165,
      "jection": 1166,
      "local": 1167,
      "overri": 1168,
      "indexing": 1169,
      "raises": 1170,
      "views": 1171,
      "internal": 1172,
      "stack": 1173,
      "detection": 1174,
      "partition": 1175,
      "connect": 1176,
      "training": 1177,
      "javascript": 1178,
      "message": 1179,
      "voting": 1180,
      "incremental": 1181,
      "rewrite": 1182,
      "quantile": 1183,
      "hierarchical": 1184,
      "04": 1185,
      "19": 1186,
      "40": 1187,
      "_/__": 1188,
      "aboost": 1189,
      "aff": 1190,
      "bar": 1191,
      "bed": 1192,
      "bise": 1193,
      "cs": 1194,
      "cv": 1195,
      "cies": 1196,
      "cate": 1197,
      "din": 1198,
      "ela": 1199,
      "ft": 1200,
      "gest": 1201,
      "glo": 1202,
      "gment": 1203,
      "hy": 1204,
      "ian": 1205,
      "isu": 1206,
      "lar": 1207,
      "mmar": 1208,
      "ng": 1209,
      "nn": 1210,
      "ning": 1211,
      "nor": 1212,
      "ow": 1213,
      "olation": 1214,
      "pres": 1215,
      "rans": 1216,
      "rbm": 1217,
      "son": 1218,
      "sen": 1219,
      "sig": 1220,
      "sne": 1221,
      "sag": 1222,
      "sim": 1223,
      "sans": 1224,
      "sho": 1225,
      "shi": 1226,
      "sou": 1227,
      "tin": 1228,
      "tance": 1229,
      "tte": 1230,
      "top": 1231,
      "ual": 1232,
      "vend": 1233,
      "vider": 1234,
      "visu": 1235,
      "wid": 1236,
      "xity": 1237,
      "zed": 1238,
      "testmodule": 1239,
      "ary": 1240,
      "arff": 1241,
      "rior": 1242,
      "inst": 1243,
      "ints": 1244,
      "inhe": 1245,
      "invalid": 1246,
      "online": 1247,
      "testserver": 1248,
      "oring": 1249,
      "ating": 1250,
      "atch": 1251,
      "ere": 1252,
      "erence": 1253,
      "pls": 1254,
      "plane": 1255,
      "rcv": 1256,
      "self": 1257,
      "segment": 1258,
      "ste": 1259,
      "star": 1260,
      "stra": 1261,
      "stop": 1262,
      "docstring": 1263,
      "itor": 1264,
      "rea": 1265,
      "repe": 1266,
      "recall": 1267,
      "repor": 1268,
      "det": 1269,
      "any": 1270,
      "inity": 1271,
      "cov": 1272,
      "coor": 1273,
      "pare": 1274,
      "paralle": 1275,
      "tsne": 1276,
      "ctx": 1277,
      "que": 1278,
      "quad": 1279,
      "scoring": 1280,
      "conver": 1281,
      "dia": 1282,
      "distri": 1283,
      "digest": 1284,
      "roid": 1285,
      "bound": 1286,
      "mean": 1287,
      "adaboost": 1288,
      "faces": 1289,
      "valu": 1290,
      "pytester": 1291,
      "unsupervised": 1292,
      "percep": 1293,
      "perplane": 1294,
      "usion": 1295,
      "ties": 1296,
      "openid": 1297,
      "openmp": 1298,
      "svmlight": 1299,
      "isolation": 1300,
      "thread": 1301,
      "velo": 1302,
      "look": 1303,
      "prepare": 1304,
      "confusion": 1305,
      "filter": 1306,
      "features": 1307,
      "multin": 1308,
      "optic": 1309,
      "mlp": 1310,
      "monotonic": 1311,
      "monitor": 1312,
      "trun": 1313,
      "progres": 1314,
      "projection": 1315,
      "provider": 1316,
      "species": 1317,
      "autou": 1318,
      "regex": 1319,
      "rints": 1320,
      "transl": 1321,
      "duplic": 1322,
      "update": 1323,
      "world": 1324,
      "assert": 1325,
      "typedef": 1326,
      "sparsefuncs": 1327,
      "generator": 1328,
      "birch": 1329,
      "argcomple": 1330,
      "separating": 1331,
      "descent": 1332,
      "imputer": 1333,
      "keywords": 1334,
      "outli": 1335,
      "alization": 1336,
      "alize": 1337,
      "routers": 1338,
      "encoders": 1339,
      "newrand": 1340,
      "template": 1341,
      "missing": 1342,
      "templating": 1343,
      "huber": 1344,
      "recursion": 1345,
      "annotation": 1346,
      "annotations": 1347,
      "annotated": 1348,
      "precision": 1349,
      "mutual": 1350,
      "murhash": 1351,
      "murmurhash": 1352,
      "weighted": 1353,
      "embed": 1354,
      "linkage": 1355,
      "bayesian": 1356,
      "predictor": 1357,
      "blueprints": 1358,
      "agglomerative": 1359,
      "after": 1360,
      "runner": 1361,
      "infinite": 1362,
      "interface": 1363,
      "functions": 1364,
      "binning": 1365,
      "empty": 1366,
      "factory": 1367,
      "unique": 1368,
      "packaging": 1369,
      "structured": 1370,
      "solvers": 1371,
      "bitset": 1372,
      "centroid": 1373,
      "hastic": 1374,
      "tmpdir": 1375,
      "wrapp": 1376,
      "serialize": 1377,
      "stochastic": 1378,
      "reference": 1379,
      "overrides": 1380,
      "affinity": 1381,
      "bisect": 1382,
      "dinate": 1383,
      "elastic": 1384,
      "global": 1385,
      "hyperplane": 1386,
      "lars": 1387,
      "mmary": 1388,
      "normal": 1389,
      "own": 1390,
      "ransac": 1391,
      "simple": 1392,
      "sansio": 1393,
      "show": 1394,
      "shift": 1395,
      "source": 1396,
      "vendor": 1397,
      "visualization": 1398,
      "inheri": 1399,
      "segmentation": 1400,
      "repeated": 1401,
      "coordinate": 1402,
      "parallel": 1403,
      "distribut": 1404,
      "perceptron": 1405,
      "lookup": 1406,
      "optics": 1407,
      "progress": 1408,
      "autouse": 1409,
      "typedefs": 1410,
      "argcomplete": 1411,
      "outlier": 1412,
      "embedding": 1413,
      "14": 1414,
      "519": 1415,
      "61": 1416,
      "88": 1417,
      "99": 1418,
      "Hash": 1419,
      "Mur": 1420,
      "ain": 1421,
      "aive": 1422,
      "bag": 1423,
      "bun": 1424,
      "blog": 1425,
      "cd": 1426,
      "cri": 1427,
      "cts": 1428,
      "cated": 1429,
      "cwarn": 1430,
      "cwid": 1431,
      "dro": 1432,
      "dcu": 1433,
      "ef": 1434,
      "ele": 1435,
      "els": 1436,
      "fy": 1437,
      "find": 1438,
      "gb": 1439,
      "gi": 1440,
      "gin": 1441,
      "gori": 1442,
      "ia": 1443,
      "iric": 1444,
      "ifor": 1445,
      "iforest": 1446,
      "ized": 1447,
      "junit": 1448,
      "knn": 1449,
      "lust": 1450,
      "lfor": 1451,
      "less": 1452,
      "mes": 1453,
      "map": 1454,
      "nan": 1455,
      "naive": 1456,
      "nia": 1457,
      "of": 1458,
      "old": 1459,
      "ois": 1460,
      "odes": 1461,
      "oob": 1462,
      "ogram": 1463,
      "pul": 1464,
      "prior": 1465,
      "rn": 1466,
      "rer": 1467,
      "ran": 1468,
      "ser": 1469,
      "sse": 1470,
      "saf": 1471,
      "ton": 1472,
      "tation": 1473,
      "tti": 1474,
      "ument": 1475,
      "ump": 1476,
      "ven": 1477,
      "ved": 1478,
      "wer": 1479,
      "whe": 1480,
      "wcwid": 1481,
      "xml": 1482,
      "xunit": 1483,
      "escap": 1484,
      "arpack": 1485,
      "alm": 1486,
      "allow": 1487,
      "rion": 1488,
      "lega": 1489,
      "lette": 1490,
      "inks": 1491,
      "inel": 1492,
      "attri": 1493,
      "ers": 1494,
      "erent": 1495,
      "enfo": 1496,
      "encode": 1497,
      "ension": 1498,
      "envelo": 1499,
      "plan": 1500,
      "plus": 1501,
      "ame": 1502,
      "export": 1503,
      "ocsvm": 1504,
      "secon": 1505,
      "select": 1506,
      "stash": 1507,
      "document": 1508,
      "reing": 1509,
      "retu": 1510,
      "recwarn": 1511,
      "realm": 1512,
      "demo": 1513,
      "depre": 1514,
      "ant": 1515,
      "ants": 1516,
      "initial": 1517,
      "apters": 1518,
      "coin": 1519,
      "cost": 1520,
      "cover": 1521,
      "otstr": 1522,
      "plotting": 1523,
      "parsing": 1524,
      "parser": 1525,
      "ctive": 1526,
      "extmat": 1527,
      "extension": 1528,
      "usted": 1529,
      "comput": 1530,
      "constra": 1531,
      "dim": 1532,
      "datafr": 1533,
      "datastructures": 1534,
      "ponly": 1535,
      "boun": 1536,
      "bootstr": 1537,
      "ick": 1538,
      "add": 1539,
      "admin": 1540,
      "adapters": 1541,
      "early": 1542,
      "ture": 1543,
      "ential": 1544,
      "omap": 1545,
      "depends": 1546,
      "ager": 1547,
      "aggres": 1548,
      "unking": 1549,
      "unrais": 1550,
      "paths": 1551,
      "pathlib": 1552,
      "perf": 1553,
      "permal": 1554,
      "perties": 1555,
      "nals": 1556,
      "bability": 1557,
      "svc": 1558,
      "tilfor": 1559,
      "classes": 1560,
      "classical": 1561,
      "metho": 1562,
      "arrayfuncs": 1563,
      "summary": 1564,
      "istical": 1565,
      "istency": 1566,
      "fastica": 1567,
      "forward": 1568,
      "isy": 1569,
      "isomap": 1570,
      "ular": 1571,
      "mask": 1572,
      "thand": 1573,
      "thir": 1574,
      "feed": 1575,
      "url": 1576,
      "pretation": 1577,
      "dataset": 1578,
      "callable": 1579,
      "califor": 1580,
      "temp": 1581,
      "terion": 1582,
      "chunking": 1583,
      "formfeed": 1584,
      "015": 1585,
      "ibatch": 1586,
      "multilabel": 1587,
      "monkey": 1588,
      "statistical": 1589,
      "least": 1590,
      "histogram": 1591,
      "properties": 1592,
      "variate": 1593,
      "manager": 1594,
      "subtests": 1595,
      "manipul": 1596,
      "pxi": 1597,
      "housing": 1598,
      "dumm": 1599,
      "word": 1600,
      "paste": 1601,
      "collection": 1602,
      "ivetti": 1603,
      "mentwise": 1604,
      "classifier": 1605,
      "ceptance": 1606,
      "mini": 1607,
      "minibatch": 1608,
      "writer": 1609,
      "fixes": 1610,
      "ellip": 1611,
      "grower": 1612,
      "ableexception": 1613,
      "noisy": 1614,
      "sentinel": 1615,
      "newton": 1616,
      "searching": 1617,
      "asyncio": 1618,
      "validationerror": 1619,
      "randomized": 1620,
      "olivetti": 1621,
      "setuponly": 1622,
      "faulthand": 1623,
      "issues": 1624,
      "cypath": 1625,
      "hashing": 1626,
      "murHash": 1627,
      "splitting": 1628,
      "splitter": 1629,
      "creation": 1630,
      "fitting": 1631,
      "fitted": 1632,
      "single": 1633,
      "skipping": 1634,
      "sequential": 1635,
      "stepwise": 1636,
      "defaults": 1637,
      "complexity": 1638,
      "setupplan": 1639,
      "butes": 1640,
      "none": 1641,
      "nonpython": 1642,
      "obje": 1643,
      "theme": 1644,
      "theil": 1645,
      "zers": 1646,
      "interpretation": 1647,
      "acceptance": 1648,
      "dense": 1649,
      "denois": 1650,
      "empiric": 1651,
      "lfw": 1652,
      "pdown": 1653,
      "idered": 1654,
      "factor": 1655,
      "univariate": 1656,
      "helloworld": 1657,
      "packages": 1658,
      "terminalwriter": 1659,
      "circ": 1660,
      "capture": 1661,
      "kddcu": 1662,
      "mock": 1663,
      "mocking": 1664,
      "passive": 1665,
      "password": 1666,
      "shor": 1667,
      "session": 1668,
      "sessions": 1669,
      "tags": 1670,
      "expans": 1671,
      "expression": 1672,
      "angle": 1673,
      "scaling": 1674,
      "consistency": 1675,
      "considered": 1676,
      "different": 1677,
      "failures": 1678,
      "optimize": 1679,
      "optimizers": 1680,
      "cacheprovider": 1681,
      "helpconfig": 1682,
      "handlers": 1683,
      "discriminator": 1684,
      "discriminant": 1685,
      "locally": 1686,
      "stacking": 1687,
      "partitioner": 1688,
      "409": 1689,
      "csgraph": 1690,
      "categori": 1691,
      "signals": 1692,
      "topic": 1693,
      "instance": 1694,
      "erepr": 1695,
      "starlette": 1696,
      "stopping": 1697,
      "reach": 1698,
      "reports": 1699,
      "covtype": 1700,
      "boundary": 1701,
      "threadexception": 1702,
      "multinodes": 1703,
      "truncated": 1704,
      "translate": 1705,
      "duplicate": 1706,
      "assertrewrite": 1707,
      "wrapped": 1708,
      "elasticnet": 1709,
      "inherited": 1710,
      "progressbar": 1711,
      "MurmurHash": 1712,
      "bagging": 1713,
      "bunch": 1714,
      "criterion": 1715,
      "dropdown": 1716,
      "elementwise": 1717,
      "findpaths": 1718,
      "given": 1719,
      "junitxml": 1720,
      "ranking": 1721,
      "saferepr": 1722,
      "wheels": 1723,
      "wcwidth": 1724,
      "escape": 1725,
      "legacypath": 1726,
      "attributes": 1727,
      "envelope": 1728,
      "second": 1729,
      "reingold": 1730,
      "return": 1731,
      "deprecation": 1732,
      "extmath": 1733,
      "computed": 1734,
      "constraints": 1735,
      "dataframe": 1736,
      "bounds": 1737,
      "bootstrap": 1738,
      "aggressive": 1739,
      "unraisableexception": 1740,
      "permalinks": 1741,
      "tilford": 1742,
      "third": 1743,
      "california": 1744,
      "monkeypatch": 1745,
      "manipulation": 1746,
      "dummy": 1747,
      "pastebin": 1748,
      "elliptic": 1749,
      "faulthandler": 1750,
      "denoising": 1751,
      "empirical": 1752,
      "kddcup": 1753,
      "categorical": 1754
    },
    "merges": [
      [
        "e",
        "s"
      ],
      [
        "es",
        "t"
      ],
      [
        "p",
        "y"
      ],
      [
        "t",
        "est"
      ],
      [
        "a",
        "r"
      ],
      [
        "a",
        "l"
      ],
      [
        "r",
        "i"
      ],
      [
        "u",
        "t"
      ],
      [
        "l",
        "e"
      ],
      [
        "i",
        "n"
      ],
      [
        "o",
        "n"
      ],
      [
        "test",
        "s"
      ],
      [
        "o",
        "ri"
      ],
      [
        "t",
        "ut"
      ],
      [
        "ori",
        "al"
      ],
      [
        "tut",
        "orial"
      ],
      [
        "/",
        "_"
      ],
      [
        "s",
        "k"
      ],
      [
        "a",
        "t"
      ],
      [
        "ar",
        "n"
      ],
      [
        "le",
        "arn"
      ],
      [
        "sk",
        "learn"
      ],
      [
        "e",
        "r"
      ],
      [
        "e",
        "n"
      ],
      [
        "p",
        "l"
      ],
      [
        "a",
        "m"
      ],
      [
        "i",
        "on"
      ],
      [
        "e",
        "x"
      ],
      [
        "o",
        "c"
      ],
      [
        "r",
        "c"
      ],
      [
        "s",
        "e"
      ],
      [
        "s",
        "rc"
      ],
      [
        "0",
        "0"
      ],
      [
        "s",
        "t"
      ],
      [
        "d",
        "oc"
      ],
      [
        "i",
        "t"
      ],
      [
        "r",
        "e"
      ],
      [
        "doc",
        "s"
      ],
      [
        "d",
        "e"
      ],
      [
        "in",
        "g"
      ],
      [
        "a",
        "n"
      ],
      [
        "ex",
        "am"
      ],
      [
        "1",
        "0"
      ],
      [
        "3",
        "10"
      ],
      [
        "in",
        "it"
      ],
      [
        "a",
        "p"
      ],
      [
        "c",
        "o"
      ],
      [
        "o",
        "t"
      ],
      [
        "/_",
        "_"
      ],
      [
        "_",
        "."
      ],
      [
        "_",
        "_."
      ],
      [
        "pl",
        "ot"
      ],
      [
        "pl",
        "es"
      ],
      [
        "p",
        "ar"
      ],
      [
        "exam",
        "ples"
      ],
      [
        "at",
        "ion"
      ],
      [
        "o",
        "r"
      ],
      [
        "m",
        "o"
      ],
      [
        "t",
        "s"
      ],
      [
        "f",
        "i"
      ],
      [
        "l",
        "s"
      ],
      [
        "mo",
        "de"
      ],
      [
        "r",
        "es"
      ],
      [
        "c",
        "t"
      ],
      [
        "en",
        "c"
      ],
      [
        "q",
        "u"
      ],
      [
        "par",
        "am"
      ],
      [
        "r",
        "a"
      ],
      [
        "s",
        "c"
      ],
      [
        "c",
        "l"
      ],
      [
        "a",
        "s"
      ],
      [
        "ex",
        "t"
      ],
      [
        "test",
        "ing"
      ],
      [
        "00",
        "1"
      ],
      [
        "ap",
        "i"
      ],
      [
        "param",
        "s"
      ],
      [
        "p",
        "en"
      ],
      [
        "u",
        "st"
      ],
      [
        "co",
        "m"
      ],
      [
        "mode",
        "l"
      ],
      [
        "d",
        "at"
      ],
      [
        "i",
        "ls"
      ],
      [
        "ut",
        "ils"
      ],
      [
        "c",
        "on"
      ],
      [
        "t",
        "y"
      ],
      [
        "d",
        "i"
      ],
      [
        "dat",
        "a"
      ],
      [
        "r",
        "o"
      ],
      [
        "i",
        "d"
      ],
      [
        "p",
        "le"
      ],
      [
        "p",
        "on"
      ],
      [
        "p",
        "at"
      ],
      [
        "b",
        "o"
      ],
      [
        "h",
        "e"
      ],
      [
        "ri",
        "p"
      ],
      [
        "res",
        "pon"
      ],
      [
        "i",
        "g"
      ],
      [
        "l",
        "in"
      ],
      [
        "m",
        "e"
      ],
      [
        "ct",
        "ion"
      ],
      [
        "b",
        "enc"
      ],
      [
        "n",
        "e"
      ],
      [
        "benc",
        "h"
      ],
      [
        "re",
        "qu"
      ],
      [
        "sc",
        "rip"
      ],
      [
        "i",
        "c"
      ],
      [
        "k",
        "s"
      ],
      [
        "ation",
        "s"
      ],
      [
        "requ",
        "est"
      ],
      [
        "scrip",
        "ts"
      ],
      [
        "ap",
        "p"
      ],
      [
        "as",
        "s"
      ],
      [
        "respon",
        "se"
      ],
      [
        "ig",
        "h"
      ],
      [
        "a",
        "d"
      ],
      [
        "00",
        "2"
      ],
      [
        "e",
        "ar"
      ],
      [
        "exam",
        "ple"
      ],
      [
        "t",
        "u"
      ],
      [
        "en",
        "t"
      ],
      [
        "o",
        "m"
      ],
      [
        "c",
        "e"
      ],
      [
        "f",
        "a"
      ],
      [
        "c",
        "u"
      ],
      [
        "de",
        "pen"
      ],
      [
        "depen",
        "d"
      ],
      [
        "lin",
        "ear"
      ],
      [
        "depend",
        "enc"
      ],
      [
        "cl",
        "ust"
      ],
      [
        "b",
        "le"
      ],
      [
        "v",
        "al"
      ],
      [
        "m",
        "ar"
      ],
      [
        "x",
        "tu"
      ],
      [
        "py",
        "test"
      ],
      [
        "clust",
        "er"
      ],
      [
        "a",
        "g"
      ],
      [
        "00",
        "3"
      ],
      [
        "u",
        "n"
      ],
      [
        "pat",
        "h"
      ],
      [
        "er",
        "y"
      ],
      [
        "se",
        "m"
      ],
      [
        "p",
        "er"
      ],
      [
        "qu",
        "ery"
      ],
      [
        "n",
        "al"
      ],
      [
        "p",
        "e"
      ],
      [
        "val",
        "id"
      ],
      [
        "ext",
        "ra"
      ],
      [
        "mar",
        "ks"
      ],
      [
        "b",
        "a"
      ],
      [
        "er",
        "nal"
      ],
      [
        "it",
        "ion"
      ],
      [
        "d",
        "y"
      ],
      [
        "s",
        "v"
      ],
      [
        "u",
        "s"
      ],
      [
        "bo",
        "dy"
      ],
      [
        "or",
        "s"
      ],
      [
        "bench",
        "marks"
      ],
      [
        "l",
        "d"
      ],
      [
        "p",
        "r"
      ],
      [
        "t",
        "i"
      ],
      [
        "t",
        "ion"
      ],
      [
        "st",
        "r"
      ],
      [
        "ext",
        "ernal"
      ],
      [
        "external",
        "s"
      ],
      [
        "cl",
        "ass"
      ],
      [
        "ar",
        "ra"
      ],
      [
        "mode",
        "ls"
      ],
      [
        "me",
        "t"
      ],
      [
        "arra",
        "y"
      ],
      [
        "e",
        "d"
      ],
      [
        "o",
        "pen"
      ],
      [
        "s",
        "u"
      ],
      [
        "i",
        "es"
      ],
      [
        "le",
        "ction"
      ],
      [
        "en",
        "sem"
      ],
      [
        "fi",
        "xtu"
      ],
      [
        "sv",
        "m"
      ],
      [
        "ensem",
        "ble"
      ],
      [
        "i",
        "st"
      ],
      [
        "p",
        "o"
      ],
      [
        "ri",
        "c"
      ],
      [
        "ri",
        "ty"
      ],
      [
        "se",
        "cu"
      ],
      [
        "se",
        "lection"
      ],
      [
        "secu",
        "rity"
      ],
      [
        "c",
        "ust"
      ],
      [
        "cust",
        "om"
      ],
      [
        "fa",
        "st"
      ],
      [
        "valid",
        "ations"
      ],
      [
        "f",
        "or"
      ],
      [
        "i",
        "m"
      ],
      [
        "an",
        "ce"
      ],
      [
        "i",
        "s"
      ],
      [
        "u",
        "l"
      ],
      [
        "m",
        "a"
      ],
      [
        "t",
        "h"
      ],
      [
        "v",
        "e"
      ],
      [
        "u",
        "re"
      ],
      [
        "es",
        "s"
      ],
      [
        "c",
        "k"
      ],
      [
        "fi",
        "g"
      ],
      [
        "con",
        "fig"
      ],
      [
        "dependenc",
        "ies"
      ],
      [
        "o",
        "st"
      ],
      [
        "l",
        "o"
      ],
      [
        "f",
        "e"
      ],
      [
        "l",
        "a"
      ],
      [
        "u",
        "r"
      ],
      [
        "com",
        "po"
      ],
      [
        "p",
        "re"
      ],
      [
        "fixtu",
        "res"
      ],
      [
        "00",
        "4"
      ],
      [
        "an",
        "d"
      ],
      [
        "con",
        "f"
      ],
      [
        "ty",
        "p"
      ],
      [
        "data",
        "se"
      ],
      [
        "py",
        "x"
      ],
      [
        "an",
        "s"
      ],
      [
        "datase",
        "ts"
      ],
      [
        "c",
        "al"
      ],
      [
        "t",
        "e"
      ],
      [
        "fi",
        "l"
      ],
      [
        "fe",
        "at"
      ],
      [
        "fast",
        "api"
      ],
      [
        "c",
        "h"
      ],
      [
        "bo",
        "ost"
      ],
      [
        "met",
        "ric"
      ],
      [
        "open",
        "api"
      ],
      [
        "th",
        "on"
      ],
      [
        "feat",
        "ure"
      ],
      [
        "b",
        "ors"
      ],
      [
        "at",
        "e"
      ],
      [
        "oc",
        "ess"
      ],
      [
        "re",
        "e"
      ],
      [
        "ne",
        "igh"
      ],
      [
        "pr",
        "ocess"
      ],
      [
        "conf",
        "test"
      ],
      [
        "metric",
        "s"
      ],
      [
        "neigh",
        "bors"
      ],
      [
        "s",
        "ition"
      ],
      [
        "de",
        "compo"
      ],
      [
        "for",
        "m"
      ],
      [
        "decompo",
        "sition"
      ],
      [
        "h",
        "t"
      ],
      [
        "m",
        "ul"
      ],
      [
        "o",
        "p"
      ],
      [
        "v",
        "er"
      ],
      [
        "boost",
        "ing"
      ],
      [
        "0",
        "1"
      ],
      [
        "g",
        "ra"
      ],
      [
        "j",
        "s"
      ],
      [
        "com",
        "pat"
      ],
      [
        "he",
        "ad"
      ],
      [
        "head",
        "er"
      ],
      [
        "f",
        "o"
      ],
      [
        "i",
        "b"
      ],
      [
        "py",
        "thon"
      ],
      [
        "di",
        "ent"
      ],
      [
        "gra",
        "dient"
      ],
      [
        "t",
        "ree"
      ],
      [
        "00",
        "5"
      ],
      [
        "co",
        "de"
      ],
      [
        "mul",
        "ti"
      ],
      [
        "m",
        "i"
      ],
      [
        "m",
        "l"
      ],
      [
        "typ",
        "es"
      ],
      [
        "g",
        "r"
      ],
      [
        "m",
        "on"
      ],
      [
        "t",
        "ing"
      ],
      [
        "ro",
        "ut"
      ],
      [
        "t",
        "er"
      ],
      [
        "00",
        "6"
      ],
      [
        "sc",
        "he"
      ],
      [
        "i",
        "e"
      ],
      [
        "i",
        "se"
      ],
      [
        "s",
        "ion"
      ],
      [
        "u",
        "i"
      ],
      [
        "er",
        "r"
      ],
      [
        "se",
        "t"
      ],
      [
        "st",
        "at"
      ],
      [
        "ma",
        "in"
      ],
      [
        "o",
        "k"
      ],
      [
        "t",
        "r"
      ],
      [
        "v",
        "ar"
      ],
      [
        "le",
        "a"
      ],
      [
        "en",
        "ts"
      ],
      [
        "cal",
        "l"
      ],
      [
        "h",
        "ist"
      ],
      [
        "p",
        "ro"
      ],
      [
        "pl",
        "ic"
      ],
      [
        "d",
        "es"
      ],
      [
        "n",
        "u"
      ],
      [
        "o",
        "per"
      ],
      [
        "re",
        "lea"
      ],
      [
        "ba",
        "ck"
      ],
      [
        "relea",
        "se"
      ],
      [
        "e",
        "l"
      ],
      [
        "l",
        "igh"
      ],
      [
        "s",
        "i"
      ],
      [
        "co",
        "ok"
      ],
      [
        "config",
        "ur"
      ],
      [
        "oper",
        "ation"
      ],
      [
        "f",
        "la"
      ],
      [
        "g",
        "e"
      ],
      [
        "l",
        "y"
      ],
      [
        "s",
        "pe"
      ],
      [
        "ap",
        "plic"
      ],
      [
        "dependenc",
        "y"
      ],
      [
        "ag",
        "e"
      ],
      [
        "ba",
        "se"
      ],
      [
        "var",
        "i"
      ],
      [
        "fla",
        "sk"
      ],
      [
        "c",
        "a"
      ],
      [
        "d",
        "ition"
      ],
      [
        "k",
        "e"
      ],
      [
        "l",
        "ib"
      ],
      [
        "m",
        "an"
      ],
      [
        "com",
        "mon"
      ],
      [
        "tion",
        "al"
      ],
      [
        "op",
        "tional"
      ],
      [
        "applic",
        "ations"
      ],
      [
        "dition",
        "al"
      ],
      [
        "a",
        "ut"
      ],
      [
        "p",
        "ut"
      ],
      [
        "fil",
        "es"
      ],
      [
        "h",
        "igh"
      ],
      [
        "en",
        "d"
      ],
      [
        "re",
        "g"
      ],
      [
        "pre",
        "process"
      ],
      [
        "high",
        "ligh"
      ],
      [
        "preprocess",
        "ing"
      ],
      [
        "i",
        "fi"
      ],
      [
        "w",
        "e"
      ],
      [
        "w",
        "ar"
      ],
      [
        "ri",
        "n"
      ],
      [
        "00",
        "8"
      ],
      [
        "su",
        "b"
      ],
      [
        "fo",
        "ld"
      ],
      [
        "vari",
        "ance"
      ],
      [
        "man",
        "i"
      ],
      [
        "highligh",
        "ts"
      ],
      [
        "p",
        "x"
      ],
      [
        "s",
        "s"
      ],
      [
        "com",
        "par"
      ],
      [
        "ad",
        "ditional"
      ],
      [
        "ance",
        "d"
      ],
      [
        "ting",
        "s"
      ],
      [
        "set",
        "tings"
      ],
      [
        "tr",
        "ans"
      ],
      [
        "g",
        "er"
      ],
      [
        "h",
        "o"
      ],
      [
        "v",
        "anced"
      ],
      [
        "pl",
        "a"
      ],
      [
        "cl",
        "i"
      ],
      [
        "data",
        "class"
      ],
      [
        "ad",
        "vanced"
      ],
      [
        "met",
        "a"
      ],
      [
        "cook",
        "ie"
      ],
      [
        "mani",
        "fold"
      ],
      [
        "d",
        "u"
      ],
      [
        "g",
        "a"
      ],
      [
        "t",
        "o"
      ],
      [
        "u",
        "p"
      ],
      [
        "w",
        "or"
      ],
      [
        "co",
        "variance"
      ],
      [
        "sche",
        "ma"
      ],
      [
        "call",
        "back"
      ],
      [
        "aut",
        "h"
      ],
      [
        "px",
        "d"
      ],
      [
        "d",
        "er"
      ],
      [
        "f",
        "un"
      ],
      [
        "p",
        "a"
      ],
      [
        "p",
        "or"
      ],
      [
        "s",
        "g"
      ],
      [
        "re",
        "ct"
      ],
      [
        "co",
        "l"
      ],
      [
        "res",
        "sion"
      ],
      [
        "di",
        "rect"
      ],
      [
        "request",
        "s"
      ],
      [
        "ass",
        "er"
      ],
      [
        "stat",
        "us"
      ],
      [
        "dataclass",
        "es"
      ],
      [
        "b",
        "l"
      ],
      [
        "c",
        "ation"
      ],
      [
        "e",
        "v"
      ],
      [
        "i",
        "ve"
      ],
      [
        "m",
        "ent"
      ],
      [
        "n",
        "est"
      ],
      [
        "s",
        "par"
      ],
      [
        "in",
        "spe"
      ],
      [
        "ty",
        "pe"
      ],
      [
        "he",
        "l"
      ],
      [
        "cu",
        "r"
      ],
      [
        "us",
        "si"
      ],
      [
        "class",
        "ifi"
      ],
      [
        "pla",
        "y"
      ],
      [
        "ga",
        "ussi"
      ],
      [
        "ev",
        "ents"
      ],
      [
        "nest",
        "ed"
      ],
      [
        "inspe",
        "ction"
      ],
      [
        "gaussi",
        "an"
      ],
      [
        "d",
        "le"
      ],
      [
        "g",
        "en"
      ],
      [
        "g",
        "it"
      ],
      [
        "h",
        "in"
      ],
      [
        "m",
        "id"
      ],
      [
        "xtu",
        "re"
      ],
      [
        "mi",
        "xture"
      ],
      [
        "reg",
        "ression"
      ],
      [
        "war",
        "e"
      ],
      [
        "dle",
        "ware"
      ],
      [
        "mid",
        "dleware"
      ],
      [
        "c",
        "he"
      ],
      [
        "k",
        "er"
      ],
      [
        "l",
        "ation"
      ],
      [
        "s",
        "es"
      ],
      [
        "v",
        "ise"
      ],
      [
        "respon",
        "ses"
      ],
      [
        "me",
        "ric"
      ],
      [
        "ce",
        "p"
      ],
      [
        "per",
        "vise"
      ],
      [
        "su",
        "pervise"
      ],
      [
        "js",
        "on"
      ],
      [
        "err",
        "or"
      ],
      [
        "nu",
        "meric"
      ],
      [
        "asser",
        "tion"
      ],
      [
        "spar",
        "se"
      ],
      [
        "classifi",
        "cation"
      ],
      [
        "gen",
        "er"
      ],
      [
        "ker",
        "ne"
      ],
      [
        "supervise",
        "d"
      ],
      [
        "0",
        "2"
      ],
      [
        "a",
        "sk"
      ],
      [
        "h",
        "and"
      ],
      [
        "l",
        "ist"
      ],
      [
        "m",
        "in"
      ],
      [
        "p",
        "ca"
      ],
      [
        "u",
        "g"
      ],
      [
        "w",
        "ri"
      ],
      [
        "in",
        "te"
      ],
      [
        "er",
        "ver"
      ],
      [
        "fi",
        "x"
      ],
      [
        "me",
        "ans"
      ],
      [
        "ne",
        "t"
      ],
      [
        "app",
        "s"
      ],
      [
        "open",
        "ml"
      ],
      [
        "lo",
        "g"
      ],
      [
        "fil",
        "l"
      ],
      [
        "gr",
        "ation"
      ],
      [
        "compar",
        "e"
      ],
      [
        "meta",
        "data"
      ],
      [
        "por",
        "t"
      ],
      [
        "inte",
        "gration"
      ],
      [
        "b",
        "i"
      ],
      [
        "b",
        "ui"
      ],
      [
        "d",
        "b"
      ],
      [
        "f",
        "f"
      ],
      [
        "g",
        "l"
      ],
      [
        "i",
        "o"
      ],
      [
        "m",
        "p"
      ],
      [
        "v",
        "s"
      ],
      [
        "le",
        "ct"
      ],
      [
        "an",
        "e"
      ],
      [
        "un",
        "it"
      ],
      [
        "multi",
        "ple"
      ],
      [
        "we",
        "b"
      ],
      [
        "bui",
        "ld"
      ],
      [
        "b",
        "as"
      ],
      [
        "s",
        "co"
      ],
      [
        "t",
        "p"
      ],
      [
        "ar",
        "g"
      ],
      [
        "ar",
        "ch"
      ],
      [
        "se",
        "par"
      ],
      [
        "00",
        "7"
      ],
      [
        "di",
        "ct"
      ],
      [
        "ht",
        "ml"
      ],
      [
        "ht",
        "tp"
      ],
      [
        "rout",
        "e"
      ],
      [
        "err",
        "ors"
      ],
      [
        "des",
        "c"
      ],
      [
        "el",
        "l"
      ],
      [
        "configur",
        "ation"
      ],
      [
        "fun",
        "c"
      ],
      [
        "g",
        "ro"
      ],
      [
        "o",
        "us"
      ],
      [
        "r",
        "and"
      ],
      [
        "s",
        "w"
      ],
      [
        "s",
        "erver"
      ],
      [
        "t",
        "ic"
      ],
      [
        "st",
        "re"
      ],
      [
        "re",
        "pr"
      ],
      [
        "ap",
        "h"
      ],
      [
        "or",
        "y"
      ],
      [
        "sc",
        "an"
      ],
      [
        "im",
        "age"
      ],
      [
        "im",
        "put"
      ],
      [
        "gr",
        "aph"
      ],
      [
        "configur",
        "ations"
      ],
      [
        "ke",
        "y"
      ],
      [
        "col",
        "lect"
      ],
      [
        "gener",
        "ate"
      ],
      [
        "kerne",
        "l"
      ],
      [
        "db",
        "scan"
      ],
      [
        "stre",
        "am"
      ],
      [
        "a",
        "ble"
      ],
      [
        "d",
        "s"
      ],
      [
        "e",
        "p"
      ],
      [
        "g",
        "ing"
      ],
      [
        "l",
        "ing"
      ],
      [
        "n",
        "o"
      ],
      [
        "o",
        "ut"
      ],
      [
        "o",
        "ls"
      ],
      [
        "q",
        "l"
      ],
      [
        "s",
        "am"
      ],
      [
        "s",
        "ent"
      ],
      [
        "t",
        "ext"
      ],
      [
        "est",
        "im"
      ],
      [
        "al",
        "i"
      ],
      [
        "ri",
        "d"
      ],
      [
        "at",
        "ed"
      ],
      [
        "en",
        "co"
      ],
      [
        "ex",
        "cep"
      ],
      [
        "00",
        "9"
      ],
      [
        "sc",
        "ell"
      ],
      [
        "ne",
        "ur"
      ],
      [
        "sem",
        "i"
      ],
      [
        "extra",
        "ction"
      ],
      [
        "fixtu",
        "re"
      ],
      [
        "lo",
        "ss"
      ],
      [
        "typ",
        "ing"
      ],
      [
        "form",
        "s"
      ],
      [
        "mi",
        "scell"
      ],
      [
        "rout",
        "er"
      ],
      [
        "ge",
        "t"
      ],
      [
        "rin",
        "g"
      ],
      [
        "hand",
        "ling"
      ],
      [
        "net",
        "wor"
      ],
      [
        "ane",
        "ous"
      ],
      [
        "enco",
        "der"
      ],
      [
        "neur",
        "al"
      ],
      [
        "miscell",
        "aneous"
      ],
      [
        "0",
        "3"
      ],
      [
        "b",
        "e"
      ],
      [
        "m",
        "at"
      ],
      [
        "m",
        "pl"
      ],
      [
        "u",
        "res"
      ],
      [
        "w",
        "arn"
      ],
      [
        "z",
        "ation"
      ],
      [
        "as",
        "h"
      ],
      [
        "as",
        "v"
      ],
      [
        "ne",
        "w"
      ],
      [
        "te",
        "mpl"
      ],
      [
        "nu",
        "m"
      ],
      [
        "trans",
        "lation"
      ],
      [
        "to",
        "ols"
      ],
      [
        "estim",
        "at"
      ],
      [
        "excep",
        "tion"
      ],
      [
        "b",
        "ig"
      ],
      [
        "c",
        "ks"
      ],
      [
        "f",
        "ro"
      ],
      [
        "g",
        "ht"
      ],
      [
        "l",
        "ass"
      ],
      [
        "m",
        "as"
      ],
      [
        "n",
        "c"
      ],
      [
        "r",
        "ation"
      ],
      [
        "s",
        "oc"
      ],
      [
        "t",
        "ask"
      ],
      [
        "v",
        "a"
      ],
      [
        "w",
        "ise"
      ],
      [
        "x",
        "y"
      ],
      [
        "y",
        "nc"
      ],
      [
        "se",
        "arch"
      ],
      [
        "as",
        "ync"
      ],
      [
        "ext",
        "end"
      ],
      [
        "di",
        "git"
      ],
      [
        "rip",
        "tion"
      ],
      [
        "ag",
        "ger"
      ],
      [
        "valid",
        "ation"
      ],
      [
        "str",
        "u"
      ],
      [
        "for",
        "est"
      ],
      [
        "compo",
        "se"
      ],
      [
        "sche",
        "mas"
      ],
      [
        "pro",
        "xy"
      ],
      [
        "ke",
        "ts"
      ],
      [
        "lib",
        "svm"
      ],
      [
        "pa",
        "ck"
      ],
      [
        "ment",
        "al"
      ],
      [
        "hel",
        "per"
      ],
      [
        "play",
        "wri"
      ],
      [
        "hin",
        "d"
      ],
      [
        "fix",
        "er"
      ],
      [
        "unit",
        "test"
      ],
      [
        "web",
        "soc"
      ],
      [
        "separ",
        "ate"
      ],
      [
        "desc",
        "ription"
      ],
      [
        "rand",
        "om"
      ],
      [
        "sw",
        "agger"
      ],
      [
        "imput",
        "e"
      ],
      [
        "be",
        "hind"
      ],
      [
        "digit",
        "s"
      ],
      [
        "playwri",
        "ght"
      ],
      [
        "websoc",
        "kets"
      ],
      [
        "a",
        "va"
      ],
      [
        "b",
        "y"
      ],
      [
        "b",
        "el"
      ],
      [
        "c",
        "es"
      ],
      [
        "c",
        "ro"
      ],
      [
        "f",
        "r"
      ],
      [
        "h",
        "dbscan"
      ],
      [
        "i",
        "p"
      ],
      [
        "i",
        "r"
      ],
      [
        "i",
        "al"
      ],
      [
        "n",
        "ot"
      ],
      [
        "n",
        "ost"
      ],
      [
        "o",
        "auth"
      ],
      [
        "s",
        "p"
      ],
      [
        "z",
        "e"
      ],
      [
        "le",
        "r"
      ],
      [
        "pl",
        "ug"
      ],
      [
        "fi",
        "le"
      ],
      [
        "dat",
        "e"
      ],
      [
        "ag",
        "nost"
      ],
      [
        "un",
        "d"
      ],
      [
        "la",
        "bel"
      ],
      [
        "cli",
        "ents"
      ],
      [
        "che",
        "ck"
      ],
      [
        "warn",
        "ing"
      ],
      [
        "big",
        "ger"
      ],
      [
        "lass",
        "o"
      ],
      [
        "stru",
        "ct"
      ],
      [
        "cro",
        "ss"
      ],
      [
        "plug",
        "in"
      ],
      [
        "agnost",
        "ic"
      ],
      [
        "d",
        "an"
      ],
      [
        "h",
        "u"
      ],
      [
        "i",
        "l"
      ],
      [
        "k",
        "means"
      ],
      [
        "m",
        "is"
      ],
      [
        "s",
        "ql"
      ],
      [
        "py",
        "dan"
      ],
      [
        "on",
        "t"
      ],
      [
        "st",
        "ri"
      ],
      [
        "it",
        "y"
      ],
      [
        "mo",
        "du"
      ],
      [
        "di",
        "s"
      ],
      [
        "data",
        "bas"
      ],
      [
        "ic",
        "al"
      ],
      [
        "cal",
        "ib"
      ],
      [
        "direct",
        "ly"
      ],
      [
        "cur",
        "ve"
      ],
      [
        "gl",
        "m"
      ],
      [
        "func",
        "arg"
      ],
      [
        "rid",
        "ge"
      ],
      [
        "networ",
        "k"
      ],
      [
        "templ",
        "at"
      ],
      [
        "hu",
        "b"
      ],
      [
        "pydan",
        "tic"
      ],
      [
        "modu",
        "le"
      ],
      [
        "databas",
        "es"
      ],
      [
        "calib",
        "ration"
      ],
      [
        "0",
        "10"
      ],
      [
        "b",
        "ear"
      ],
      [
        "i",
        "re"
      ],
      [
        "m",
        "n"
      ],
      [
        "n",
        "er"
      ],
      [
        "o",
        "l"
      ],
      [
        "p",
        "p"
      ],
      [
        "p",
        "ag"
      ],
      [
        "t",
        "ar"
      ],
      [
        "ex",
        "pe"
      ],
      [
        "rc",
        "h"
      ],
      [
        "se",
        "tu"
      ],
      [
        "re",
        "cur"
      ],
      [
        "an",
        "not"
      ],
      [
        "enc",
        "e"
      ],
      [
        "param",
        "e"
      ],
      [
        "di",
        "r"
      ],
      [
        "di",
        "sc"
      ],
      [
        "requ",
        "ire"
      ],
      [
        "app",
        "ro"
      ],
      [
        "fa",
        "ul"
      ],
      [
        "is",
        "su"
      ],
      [
        "ve",
        "ct"
      ],
      [
        "la",
        "ble"
      ],
      [
        "pre",
        "c"
      ],
      [
        "pro",
        "pag"
      ],
      [
        "lib",
        "linear"
      ],
      [
        "ho",
        "o"
      ],
      [
        "out",
        "put"
      ],
      [
        "helper",
        "s"
      ],
      [
        "fr",
        "ont"
      ],
      [
        "plugin",
        "s"
      ],
      [
        "dis",
        "play"
      ],
      [
        "bear",
        "er"
      ],
      [
        "require",
        "d"
      ],
      [
        "front",
        "end"
      ],
      [
        "_",
        "/"
      ],
      [
        "c",
        "y"
      ],
      [
        "e",
        "ld"
      ],
      [
        "g",
        "pr"
      ],
      [
        "h",
        "ash"
      ],
      [
        "i",
        "ri"
      ],
      [
        "m",
        "m"
      ],
      [
        "m",
        "ut"
      ],
      [
        "m",
        "ur"
      ],
      [
        "n",
        "am"
      ],
      [
        "r",
        "st"
      ],
      [
        "s",
        "pl"
      ],
      [
        "z",
        "en"
      ],
      [
        "ri",
        "mental"
      ],
      [
        "in",
        "fo"
      ],
      [
        "on",
        "ic"
      ],
      [
        "oc",
        "ks"
      ],
      [
        "st",
        "ring"
      ],
      [
        "ot",
        "onic"
      ],
      [
        "fi",
        "eld"
      ],
      [
        "fi",
        "rst"
      ],
      [
        "con",
        "t"
      ],
      [
        "lin",
        "e"
      ],
      [
        "igh",
        "t"
      ],
      [
        "ba",
        "cks"
      ],
      [
        "ist",
        "ic"
      ],
      [
        "custom",
        "direct"
      ],
      [
        "im",
        "port"
      ],
      [
        "ve",
        "l"
      ],
      [
        "config",
        "ure"
      ],
      [
        "ver",
        "sion"
      ],
      [
        "01",
        "1"
      ],
      [
        "multi",
        "class"
      ],
      [
        "ter",
        "s"
      ],
      [
        "call",
        "backs"
      ],
      [
        "back",
        "gro"
      ],
      [
        "si",
        "ve"
      ],
      [
        "we",
        "ight"
      ],
      [
        "rin",
        "t"
      ],
      [
        "cli",
        "app"
      ],
      [
        "pa",
        "ir"
      ],
      [
        "sg",
        "d"
      ],
      [
        "bl",
        "ocks"
      ],
      [
        "hin",
        "x"
      ],
      [
        "log",
        "istic"
      ],
      [
        "bi",
        "cluster"
      ],
      [
        "ali",
        "as"
      ],
      [
        "fro",
        "zen"
      ],
      [
        "task",
        "s"
      ],
      [
        "sp",
        "hinx"
      ],
      [
        "warning",
        "s"
      ],
      [
        "tar",
        "get"
      ],
      [
        "expe",
        "rimental"
      ],
      [
        "appro",
        "x"
      ],
      [
        "propag",
        "ation"
      ],
      [
        "hoo",
        "ks"
      ],
      [
        "iri",
        "s"
      ],
      [
        "spl",
        "it"
      ],
      [
        "customdirect",
        "ory"
      ],
      [
        "backgro",
        "und"
      ],
      [
        "pair",
        "wise"
      ],
      [
        "b",
        "ug"
      ],
      [
        "c",
        "re"
      ],
      [
        "e",
        "m"
      ],
      [
        "f",
        "it"
      ],
      [
        "h",
        "i"
      ],
      [
        "h",
        "al"
      ],
      [
        "i",
        "pe"
      ],
      [
        "i",
        "lable"
      ],
      [
        "k",
        "ing"
      ],
      [
        "p",
        "c"
      ],
      [
        "p",
        "port"
      ],
      [
        "s",
        "ing"
      ],
      [
        "s",
        "or"
      ],
      [
        "t",
        "es"
      ],
      [
        "t",
        "ra"
      ],
      [
        "u",
        "ep"
      ],
      [
        "w",
        "it"
      ],
      [
        "y",
        "es"
      ],
      [
        "al",
        "g"
      ],
      [
        "le",
        "vel"
      ],
      [
        "on",
        "ly"
      ],
      [
        "sk",
        "ip"
      ],
      [
        "at",
        "ive"
      ],
      [
        "er",
        "ative"
      ],
      [
        "se",
        "qu"
      ],
      [
        "st",
        "ep"
      ],
      [
        "de",
        "faul"
      ],
      [
        "de",
        "bug"
      ],
      [
        "an",
        "ces"
      ],
      [
        "par",
        "ti"
      ],
      [
        "or",
        "der"
      ],
      [
        "cl",
        "u"
      ],
      [
        "com",
        "ple"
      ],
      [
        "lin",
        "k"
      ],
      [
        "lin",
        "alg"
      ],
      [
        "fa",
        "ce"
      ],
      [
        "ag",
        "gl"
      ],
      [
        "un",
        "ion"
      ],
      [
        "ba",
        "yes"
      ],
      [
        "ld",
        "a"
      ],
      [
        "su",
        "pport"
      ],
      [
        "is",
        "on"
      ],
      [
        "is",
        "ion"
      ],
      [
        "pre",
        "dict"
      ],
      [
        "header",
        "s"
      ],
      [
        "cook",
        "ies"
      ],
      [
        "compar",
        "ison"
      ],
      [
        "trans",
        "form"
      ],
      [
        "bl",
        "uep"
      ],
      [
        "git",
        "hub"
      ],
      [
        "sco",
        "pe"
      ],
      [
        "mat",
        "ch"
      ],
      [
        "num",
        "py"
      ],
      [
        "estimat",
        "ors"
      ],
      [
        "ava",
        "ilable"
      ],
      [
        "mis",
        "match"
      ],
      [
        "stri",
        "ct"
      ],
      [
        "templat",
        "es"
      ],
      [
        "setu",
        "p"
      ],
      [
        "issu",
        "e"
      ],
      [
        "field",
        "s"
      ],
      [
        "cont",
        "ent"
      ],
      [
        "sphinx",
        "ext"
      ],
      [
        "parti",
        "al"
      ],
      [
        "aggl",
        "om"
      ],
      [
        "a",
        "f"
      ],
      [
        "b",
        "ut"
      ],
      [
        "b",
        "er"
      ],
      [
        "d",
        "ul"
      ],
      [
        "d",
        "ask"
      ],
      [
        "e",
        "ring"
      ],
      [
        "g",
        "mm"
      ],
      [
        "g",
        "pc"
      ],
      [
        "i",
        "date"
      ],
      [
        "j",
        "e"
      ],
      [
        "l",
        "oc"
      ],
      [
        "m",
        "al"
      ],
      [
        "m",
        "ds"
      ],
      [
        "n",
        "on"
      ],
      [
        "o",
        "b"
      ],
      [
        "o",
        "u"
      ],
      [
        "o",
        "ver"
      ],
      [
        "p",
        "es"
      ],
      [
        "p",
        "ipe"
      ],
      [
        "r",
        "al"
      ],
      [
        "r",
        "un"
      ],
      [
        "t",
        "ri"
      ],
      [
        "t",
        "he"
      ],
      [
        "v",
        "ing"
      ],
      [
        "w",
        "s"
      ],
      [
        "w",
        "sg"
      ],
      [
        "y",
        "ie"
      ],
      [
        "z",
        "er"
      ],
      [
        "al",
        "y"
      ],
      [
        "in",
        "d"
      ],
      [
        "in",
        "f"
      ],
      [
        "in",
        "ter"
      ],
      [
        "in",
        "ner"
      ],
      [
        "in",
        "clu"
      ],
      [
        "en",
        "able"
      ],
      [
        "ion",
        "s"
      ],
      [
        "st",
        "ic"
      ],
      [
        "re",
        "du"
      ],
      [
        "de",
        "prec"
      ],
      [
        "co",
        "r"
      ],
      [
        "co",
        "des"
      ],
      [
        "mo",
        "dul"
      ],
      [
        "res",
        "ho"
      ],
      [
        "ct",
        "ral"
      ],
      [
        "ra",
        "is"
      ],
      [
        "dat",
        "es"
      ],
      [
        "con",
        "text"
      ],
      [
        "di",
        "st"
      ],
      [
        "ro",
        "up"
      ],
      [
        "om",
        "ial"
      ],
      [
        "cu",
        "py"
      ],
      [
        "dependenc",
        "e"
      ],
      [
        "val",
        "idate"
      ],
      [
        "mar",
        "k"
      ],
      [
        "us",
        "ing"
      ],
      [
        "po",
        "ly"
      ],
      [
        "th",
        "resho"
      ],
      [
        "01",
        "2"
      ],
      [
        "01",
        "3"
      ],
      [
        "fo",
        "o"
      ],
      [
        "rout",
        "ing"
      ],
      [
        "stat",
        "ic"
      ],
      [
        "spe",
        "ctral"
      ],
      [
        "sub",
        "dir"
      ],
      [
        "to",
        "rch"
      ],
      [
        "up",
        "dates"
      ],
      [
        "fun",
        "ction"
      ],
      [
        "sg",
        "roup"
      ],
      [
        "log",
        "ging"
      ],
      [
        "bas",
        "ic"
      ],
      [
        "sco",
        "pes"
      ],
      [
        "sam",
        "e"
      ],
      [
        "sam",
        "ples"
      ],
      [
        "new",
        "sgroup"
      ],
      [
        "num",
        "ber"
      ],
      [
        "estimat",
        "or"
      ],
      [
        "by",
        "tes"
      ],
      [
        "struct",
        "ures"
      ],
      [
        "funcarg",
        "s"
      ],
      [
        "recur",
        "sive"
      ],
      [
        "nam",
        "e"
      ],
      [
        "approx",
        "im"
      ],
      [
        "hal",
        "ving"
      ],
      [
        "wit",
        "h"
      ],
      [
        "debug",
        "ging"
      ],
      [
        "transform",
        "er"
      ],
      [
        "wsg",
        "i"
      ],
      [
        "yie",
        "ld"
      ],
      [
        "redu",
        "ction"
      ],
      [
        "deprec",
        "ated"
      ],
      [
        "modul",
        "es"
      ],
      [
        "thresho",
        "ld"
      ],
      [
        "newsgroup",
        "s"
      ],
      [
        "2",
        "0"
      ],
      [
        "6",
        "4"
      ],
      [
        "a",
        "c"
      ],
      [
        "b",
        "al"
      ],
      [
        "b",
        "in"
      ],
      [
        "c",
        "c"
      ],
      [
        "c",
        "pp"
      ],
      [
        "d",
        "en"
      ],
      [
        "e",
        "mp"
      ],
      [
        "f",
        "ree"
      ],
      [
        "g",
        "res"
      ],
      [
        "k",
        "g"
      ],
      [
        "k",
        "de"
      ],
      [
        "l",
        "f"
      ],
      [
        "m",
        "f"
      ],
      [
        "n",
        "ca"
      ],
      [
        "n",
        "omial"
      ],
      [
        "n",
        "mf"
      ],
      [
        "p",
        "d"
      ],
      [
        "p",
        "ing"
      ],
      [
        "p",
        "kg"
      ],
      [
        "r",
        "oc"
      ],
      [
        "s",
        "is"
      ],
      [
        "s",
        "ol"
      ],
      [
        "v",
        "ie"
      ],
      [
        "ar",
        "est"
      ],
      [
        "in",
        "t"
      ],
      [
        "at",
        "or"
      ],
      [
        "learn",
        "ing"
      ],
      [
        "st",
        "a"
      ],
      [
        "re",
        "ti"
      ],
      [
        "de",
        "te"
      ],
      [
        "an",
        "ge"
      ],
      [
        "an",
        "aly"
      ],
      [
        "par",
        "t"
      ],
      [
        "con",
        "ne"
      ],
      [
        "id",
        "er"
      ],
      [
        "lin",
        "es"
      ],
      [
        "ne",
        "arest"
      ],
      [
        "scrip",
        "t"
      ],
      [
        "ce",
        "ler"
      ],
      [
        "fa",
        "ct"
      ],
      [
        "un",
        "i"
      ],
      [
        "per",
        "mut"
      ],
      [
        "ti",
        "me"
      ],
      [
        "su",
        "cc"
      ],
      [
        "is",
        "otonic"
      ],
      [
        "ess",
        "ive"
      ],
      [
        "lo",
        "f"
      ],
      [
        "lo",
        "w"
      ],
      [
        "ch",
        "ange"
      ],
      [
        "multi",
        "output"
      ],
      [
        "ter",
        "min"
      ],
      [
        "stat",
        "s"
      ],
      [
        "tr",
        "on"
      ],
      [
        "ifi",
        "ed"
      ],
      [
        "war",
        "d"
      ],
      [
        "bl",
        "as"
      ],
      [
        "hel",
        "lo"
      ],
      [
        "ff",
        "t"
      ],
      [
        "web",
        "hooks"
      ],
      [
        "func",
        "s"
      ],
      [
        "gro",
        "up"
      ],
      [
        "pack",
        "ag"
      ],
      [
        "pack",
        "age"
      ],
      [
        "struct",
        "ure"
      ],
      [
        "mn",
        "ist"
      ],
      [
        "disc",
        "reti"
      ],
      [
        "cy",
        "thon"
      ],
      [
        "string",
        "ified"
      ],
      [
        "import",
        "ance"
      ],
      [
        "alias",
        "es"
      ],
      [
        "sor",
        "ting"
      ],
      [
        "tra",
        "in"
      ],
      [
        "step",
        "s"
      ],
      [
        "defaul",
        "t"
      ],
      [
        "pipe",
        "line"
      ],
      [
        "inclu",
        "de"
      ],
      [
        "cor",
        "s"
      ],
      [
        "dist",
        "ances"
      ],
      [
        "poly",
        "nomial"
      ],
      [
        "approxim",
        "ation"
      ],
      [
        "free",
        "ze"
      ],
      [
        "sol",
        "ver"
      ],
      [
        "analy",
        "sis"
      ],
      [
        "celer",
        "y"
      ],
      [
        "permut",
        "ation"
      ],
      [
        "succ",
        "essive"
      ],
      [
        "termin",
        "al"
      ],
      [
        "discreti",
        "zation"
      ],
      [
        "0",
        "5"
      ],
      [
        "1",
        "1"
      ],
      [
        "b",
        "m"
      ],
      [
        "b",
        "it"
      ],
      [
        "b",
        "ust"
      ],
      [
        "c",
        "i"
      ],
      [
        "c",
        "ap"
      ],
      [
        "c",
        "ent"
      ],
      [
        "c",
        "ision"
      ],
      [
        "d",
        "ing"
      ],
      [
        "g",
        "rid"
      ],
      [
        "h",
        "a"
      ],
      [
        "i",
        "py"
      ],
      [
        "j",
        "ava"
      ],
      [
        "k",
        "d"
      ],
      [
        "l",
        "i"
      ],
      [
        "l",
        "ity"
      ],
      [
        "m",
        "oc"
      ],
      [
        "m",
        "ess"
      ],
      [
        "m",
        "ory"
      ],
      [
        "p",
        "ass"
      ],
      [
        "r",
        "fe"
      ],
      [
        "s",
        "h"
      ],
      [
        "s",
        "ess"
      ],
      [
        "t",
        "w"
      ],
      [
        "t",
        "ag"
      ],
      [
        "t",
        "ed"
      ],
      [
        "t",
        "mp"
      ],
      [
        "u",
        "mn"
      ],
      [
        "v",
        "ot"
      ],
      [
        "w",
        "r"
      ],
      [
        "al",
        "le"
      ],
      [
        "ri",
        "x"
      ],
      [
        "ri",
        "min"
      ],
      [
        "in",
        "cre"
      ],
      [
        "ori",
        "zation"
      ],
      [
        "ori",
        "zer"
      ],
      [
        "er",
        "ation"
      ],
      [
        "er",
        "arch"
      ],
      [
        "ex",
        "p"
      ],
      [
        "ex",
        "ing"
      ],
      [
        "rc",
        "e"
      ],
      [
        "se",
        "ri"
      ],
      [
        "st",
        "oc"
      ],
      [
        "doc",
        "test"
      ],
      [
        "it",
        "em"
      ],
      [
        "it",
        "erative"
      ],
      [
        "re",
        "f"
      ],
      [
        "re",
        "ad"
      ],
      [
        "re",
        "direct"
      ],
      [
        "re",
        "wri"
      ],
      [
        "de",
        "f"
      ],
      [
        "de",
        "cision"
      ],
      [
        "an",
        "g"
      ],
      [
        "an",
        "ti"
      ],
      [
        "init",
        "e"
      ],
      [
        "enc",
        "y"
      ],
      [
        "qu",
        "anti"
      ],
      [
        "sc",
        "al"
      ],
      [
        "sc",
        "ipy"
      ],
      [
        "con",
        "s"
      ],
      [
        "con",
        "ditional"
      ],
      [
        "di",
        "ff"
      ],
      [
        "ro",
        "bust"
      ],
      [
        "pat",
        "ch"
      ],
      [
        "lin",
        "ks"
      ],
      [
        "me",
        "mory"
      ],
      [
        "ic",
        "a"
      ],
      [
        "ic",
        "ation"
      ],
      [
        "ent",
        "ication"
      ],
      [
        "om",
        "p"
      ],
      [
        "fa",
        "il"
      ],
      [
        "clust",
        "ering"
      ],
      [
        "sv",
        "d"
      ],
      [
        "us",
        "er"
      ],
      [
        "ti",
        "mi"
      ],
      [
        "pre",
        "fix"
      ],
      [
        "form",
        "at"
      ],
      [
        "op",
        "timi"
      ],
      [
        "01",
        "4"
      ],
      [
        "gr",
        "am"
      ],
      [
        "main",
        "t"
      ],
      [
        "ligh",
        "t"
      ],
      [
        "flask",
        "r"
      ],
      [
        "ca",
        "che"
      ],
      [
        "meta",
        "estimators"
      ],
      [
        "wor",
        "ds"
      ],
      [
        "auth",
        "orization"
      ],
      [
        "auth",
        "entication"
      ],
      [
        "col",
        "umn"
      ],
      [
        "hel",
        "p"
      ],
      [
        "che",
        "cks"
      ],
      [
        "kerne",
        "ls"
      ],
      [
        "hand",
        "ler"
      ],
      [
        "bi",
        "lity"
      ],
      [
        "graph",
        "ql"
      ],
      [
        "no",
        "des"
      ],
      [
        "networ",
        "ks"
      ],
      [
        "mat",
        "rix"
      ],
      [
        "exception",
        "s"
      ],
      [
        "fro",
        "m"
      ],
      [
        "extend",
        "ing"
      ],
      [
        "pp",
        "rint"
      ],
      [
        "parame",
        "ter"
      ],
      [
        "parame",
        "ters"
      ],
      [
        "disc",
        "rimin"
      ],
      [
        "vect",
        "or"
      ],
      [
        "vect",
        "orizer"
      ],
      [
        "version",
        "s"
      ],
      [
        "rint",
        "app"
      ],
      [
        "hi",
        "erarch"
      ],
      [
        "sequ",
        "ence"
      ],
      [
        "bluep",
        "rintapp"
      ],
      [
        "agglom",
        "eration"
      ],
      [
        "je",
        "ction"
      ],
      [
        "loc",
        "al"
      ],
      [
        "over",
        "ri"
      ],
      [
        "ind",
        "exing"
      ],
      [
        "rais",
        "es"
      ],
      [
        "vie",
        "ws"
      ],
      [
        "int",
        "ernal"
      ],
      [
        "sta",
        "ck"
      ],
      [
        "dete",
        "ction"
      ],
      [
        "part",
        "ition"
      ],
      [
        "conne",
        "ct"
      ],
      [
        "train",
        "ing"
      ],
      [
        "java",
        "script"
      ],
      [
        "mess",
        "age"
      ],
      [
        "vot",
        "ing"
      ],
      [
        "incre",
        "mental"
      ],
      [
        "rewri",
        "te"
      ],
      [
        "quanti",
        "le"
      ],
      [
        "hierarch",
        "ical"
      ],
      [
        "0",
        "4"
      ],
      [
        "1",
        "9"
      ],
      [
        "4",
        "0"
      ],
      [
        "_",
        "/__"
      ],
      [
        "a",
        "boost"
      ],
      [
        "a",
        "ff"
      ],
      [
        "b",
        "ar"
      ],
      [
        "b",
        "ed"
      ],
      [
        "b",
        "ise"
      ],
      [
        "c",
        "s"
      ],
      [
        "c",
        "v"
      ],
      [
        "c",
        "ies"
      ],
      [
        "c",
        "ate"
      ],
      [
        "d",
        "in"
      ],
      [
        "e",
        "la"
      ],
      [
        "f",
        "t"
      ],
      [
        "g",
        "est"
      ],
      [
        "g",
        "lo"
      ],
      [
        "g",
        "ment"
      ],
      [
        "h",
        "y"
      ],
      [
        "i",
        "an"
      ],
      [
        "i",
        "su"
      ],
      [
        "l",
        "ar"
      ],
      [
        "m",
        "mar"
      ],
      [
        "n",
        "g"
      ],
      [
        "n",
        "n"
      ],
      [
        "n",
        "ing"
      ],
      [
        "n",
        "or"
      ],
      [
        "o",
        "w"
      ],
      [
        "o",
        "lation"
      ],
      [
        "p",
        "res"
      ],
      [
        "r",
        "ans"
      ],
      [
        "r",
        "bm"
      ],
      [
        "s",
        "on"
      ],
      [
        "s",
        "en"
      ],
      [
        "s",
        "ig"
      ],
      [
        "s",
        "ne"
      ],
      [
        "s",
        "ag"
      ],
      [
        "s",
        "im"
      ],
      [
        "s",
        "ans"
      ],
      [
        "s",
        "ho"
      ],
      [
        "s",
        "hi"
      ],
      [
        "s",
        "ou"
      ],
      [
        "t",
        "in"
      ],
      [
        "t",
        "ance"
      ],
      [
        "t",
        "te"
      ],
      [
        "t",
        "op"
      ],
      [
        "u",
        "al"
      ],
      [
        "v",
        "end"
      ],
      [
        "v",
        "ider"
      ],
      [
        "v",
        "isu"
      ],
      [
        "w",
        "id"
      ],
      [
        "x",
        "ity"
      ],
      [
        "z",
        "ed"
      ],
      [
        "test",
        "module"
      ],
      [
        "ar",
        "y"
      ],
      [
        "ar",
        "ff"
      ],
      [
        "ri",
        "or"
      ],
      [
        "in",
        "st"
      ],
      [
        "in",
        "ts"
      ],
      [
        "in",
        "he"
      ],
      [
        "in",
        "valid"
      ],
      [
        "on",
        "line"
      ],
      [
        "tests",
        "erver"
      ],
      [
        "ori",
        "ng"
      ],
      [
        "at",
        "ing"
      ],
      [
        "at",
        "ch"
      ],
      [
        "er",
        "e"
      ],
      [
        "er",
        "ence"
      ],
      [
        "pl",
        "s"
      ],
      [
        "pl",
        "ane"
      ],
      [
        "rc",
        "v"
      ],
      [
        "se",
        "lf"
      ],
      [
        "se",
        "gment"
      ],
      [
        "st",
        "e"
      ],
      [
        "st",
        "ar"
      ],
      [
        "st",
        "ra"
      ],
      [
        "st",
        "op"
      ],
      [
        "doc",
        "string"
      ],
      [
        "it",
        "or"
      ],
      [
        "re",
        "a"
      ],
      [
        "re",
        "pe"
      ],
      [
        "re",
        "call"
      ],
      [
        "re",
        "por"
      ],
      [
        "de",
        "t"
      ],
      [
        "an",
        "y"
      ],
      [
        "init",
        "y"
      ],
      [
        "co",
        "v"
      ],
      [
        "co",
        "or"
      ],
      [
        "par",
        "e"
      ],
      [
        "par",
        "alle"
      ],
      [
        "ts",
        "ne"
      ],
      [
        "ct",
        "x"
      ],
      [
        "qu",
        "e"
      ],
      [
        "qu",
        "ad"
      ],
      [
        "sc",
        "oring"
      ],
      [
        "con",
        "ver"
      ],
      [
        "di",
        "a"
      ],
      [
        "di",
        "stri"
      ],
      [
        "di",
        "gest"
      ],
      [
        "ro",
        "id"
      ],
      [
        "bo",
        "und"
      ],
      [
        "me",
        "an"
      ],
      [
        "ad",
        "aboost"
      ],
      [
        "fa",
        "ces"
      ],
      [
        "val",
        "u"
      ],
      [
        "pytest",
        "er"
      ],
      [
        "un",
        "supervised"
      ],
      [
        "per",
        "cep"
      ],
      [
        "per",
        "plane"
      ],
      [
        "us",
        "ion"
      ],
      [
        "ti",
        "es"
      ],
      [
        "open",
        "id"
      ],
      [
        "open",
        "mp"
      ],
      [
        "svm",
        "light"
      ],
      [
        "is",
        "olation"
      ],
      [
        "th",
        "read"
      ],
      [
        "ve",
        "lo"
      ],
      [
        "lo",
        "ok"
      ],
      [
        "pre",
        "pare"
      ],
      [
        "conf",
        "usion"
      ],
      [
        "fil",
        "ter"
      ],
      [
        "feat",
        "ures"
      ],
      [
        "mul",
        "tin"
      ],
      [
        "op",
        "tic"
      ],
      [
        "ml",
        "p"
      ],
      [
        "mon",
        "otonic"
      ],
      [
        "mon",
        "itor"
      ],
      [
        "tr",
        "un"
      ],
      [
        "pro",
        "gres"
      ],
      [
        "pro",
        "jection"
      ],
      [
        "pro",
        "vider"
      ],
      [
        "spe",
        "cies"
      ],
      [
        "aut",
        "ou"
      ],
      [
        "reg",
        "ex"
      ],
      [
        "rin",
        "ts"
      ],
      [
        "trans",
        "l"
      ],
      [
        "du",
        "plic"
      ],
      [
        "up",
        "date"
      ],
      [
        "wor",
        "ld"
      ],
      [
        "asser",
        "t"
      ],
      [
        "type",
        "def"
      ],
      [
        "sparse",
        "funcs"
      ],
      [
        "gener",
        "ator"
      ],
      [
        "bi",
        "rch"
      ],
      [
        "arg",
        "comple"
      ],
      [
        "separ",
        "ating"
      ],
      [
        "desc",
        "ent"
      ],
      [
        "imput",
        "er"
      ],
      [
        "key",
        "words"
      ],
      [
        "out",
        "li"
      ],
      [
        "ali",
        "zation"
      ],
      [
        "ali",
        "ze"
      ],
      [
        "router",
        "s"
      ],
      [
        "encoder",
        "s"
      ],
      [
        "new",
        "rand"
      ],
      [
        "templ",
        "ate"
      ],
      [
        "mis",
        "sing"
      ],
      [
        "templat",
        "ing"
      ],
      [
        "hub",
        "er"
      ],
      [
        "recur",
        "sion"
      ],
      [
        "annot",
        "ation"
      ],
      [
        "annot",
        "ations"
      ],
      [
        "annot",
        "ated"
      ],
      [
        "prec",
        "ision"
      ],
      [
        "mut",
        "ual"
      ],
      [
        "mur",
        "hash"
      ],
      [
        "mur",
        "murhash"
      ],
      [
        "weight",
        "ed"
      ],
      [
        "em",
        "bed"
      ],
      [
        "link",
        "age"
      ],
      [
        "bayes",
        "ian"
      ],
      [
        "predict",
        "or"
      ],
      [
        "bluep",
        "rints"
      ],
      [
        "agglom",
        "erative"
      ],
      [
        "af",
        "ter"
      ],
      [
        "run",
        "ner"
      ],
      [
        "inf",
        "inite"
      ],
      [
        "inter",
        "face"
      ],
      [
        "function",
        "s"
      ],
      [
        "bin",
        "ning"
      ],
      [
        "emp",
        "ty"
      ],
      [
        "fact",
        "ory"
      ],
      [
        "uni",
        "que"
      ],
      [
        "packag",
        "ing"
      ],
      [
        "structure",
        "d"
      ],
      [
        "solver",
        "s"
      ],
      [
        "bit",
        "set"
      ],
      [
        "cent",
        "roid"
      ],
      [
        "ha",
        "stic"
      ],
      [
        "tmp",
        "dir"
      ],
      [
        "wr",
        "app"
      ],
      [
        "seri",
        "alize"
      ],
      [
        "stoc",
        "hastic"
      ],
      [
        "ref",
        "erence"
      ],
      [
        "overri",
        "des"
      ],
      [
        "aff",
        "inity"
      ],
      [
        "bise",
        "ct"
      ],
      [
        "din",
        "ate"
      ],
      [
        "ela",
        "stic"
      ],
      [
        "glo",
        "bal"
      ],
      [
        "hy",
        "perplane"
      ],
      [
        "lar",
        "s"
      ],
      [
        "mmar",
        "y"
      ],
      [
        "nor",
        "mal"
      ],
      [
        "ow",
        "n"
      ],
      [
        "rans",
        "ac"
      ],
      [
        "sim",
        "ple"
      ],
      [
        "sans",
        "io"
      ],
      [
        "sho",
        "w"
      ],
      [
        "shi",
        "ft"
      ],
      [
        "sou",
        "rce"
      ],
      [
        "vend",
        "or"
      ],
      [
        "visu",
        "alization"
      ],
      [
        "inhe",
        "ri"
      ],
      [
        "segment",
        "ation"
      ],
      [
        "repe",
        "ated"
      ],
      [
        "coor",
        "dinate"
      ],
      [
        "paralle",
        "l"
      ],
      [
        "distri",
        "but"
      ],
      [
        "percep",
        "tron"
      ],
      [
        "look",
        "up"
      ],
      [
        "optic",
        "s"
      ],
      [
        "progres",
        "s"
      ],
      [
        "autou",
        "se"
      ],
      [
        "typedef",
        "s"
      ],
      [
        "argcomple",
        "te"
      ],
      [
        "outli",
        "er"
      ],
      [
        "embed",
        "ding"
      ],
      [
        "1",
        "4"
      ],
      [
        "5",
        "19"
      ],
      [
        "6",
        "1"
      ],
      [
        "8",
        "8"
      ],
      [
        "9",
        "9"
      ],
      [
        "H",
        "ash"
      ],
      [
        "M",
        "ur"
      ],
      [
        "a",
        "in"
      ],
      [
        "a",
        "ive"
      ],
      [
        "b",
        "ag"
      ],
      [
        "b",
        "un"
      ],
      [
        "b",
        "log"
      ],
      [
        "c",
        "d"
      ],
      [
        "c",
        "ri"
      ],
      [
        "c",
        "ts"
      ],
      [
        "c",
        "ated"
      ],
      [
        "c",
        "warn"
      ],
      [
        "c",
        "wid"
      ],
      [
        "d",
        "ro"
      ],
      [
        "d",
        "cu"
      ],
      [
        "e",
        "f"
      ],
      [
        "e",
        "le"
      ],
      [
        "e",
        "ls"
      ],
      [
        "f",
        "y"
      ],
      [
        "f",
        "ind"
      ],
      [
        "g",
        "b"
      ],
      [
        "g",
        "i"
      ],
      [
        "g",
        "in"
      ],
      [
        "g",
        "ori"
      ],
      [
        "i",
        "a"
      ],
      [
        "i",
        "ric"
      ],
      [
        "i",
        "for"
      ],
      [
        "i",
        "forest"
      ],
      [
        "i",
        "zed"
      ],
      [
        "j",
        "unit"
      ],
      [
        "k",
        "nn"
      ],
      [
        "l",
        "ust"
      ],
      [
        "l",
        "for"
      ],
      [
        "l",
        "ess"
      ],
      [
        "m",
        "es"
      ],
      [
        "m",
        "ap"
      ],
      [
        "n",
        "an"
      ],
      [
        "n",
        "aive"
      ],
      [
        "n",
        "ia"
      ],
      [
        "o",
        "f"
      ],
      [
        "o",
        "ld"
      ],
      [
        "o",
        "is"
      ],
      [
        "o",
        "des"
      ],
      [
        "o",
        "ob"
      ],
      [
        "o",
        "gram"
      ],
      [
        "p",
        "ul"
      ],
      [
        "p",
        "rior"
      ],
      [
        "r",
        "n"
      ],
      [
        "r",
        "er"
      ],
      [
        "r",
        "an"
      ],
      [
        "s",
        "er"
      ],
      [
        "s",
        "se"
      ],
      [
        "s",
        "af"
      ],
      [
        "t",
        "on"
      ],
      [
        "t",
        "ation"
      ],
      [
        "t",
        "ti"
      ],
      [
        "u",
        "ment"
      ],
      [
        "u",
        "mp"
      ],
      [
        "v",
        "en"
      ],
      [
        "v",
        "ed"
      ],
      [
        "w",
        "er"
      ],
      [
        "w",
        "he"
      ],
      [
        "w",
        "cwid"
      ],
      [
        "x",
        "ml"
      ],
      [
        "x",
        "unit"
      ],
      [
        "es",
        "cap"
      ],
      [
        "ar",
        "pack"
      ],
      [
        "al",
        "m"
      ],
      [
        "al",
        "low"
      ],
      [
        "ri",
        "on"
      ],
      [
        "le",
        "ga"
      ],
      [
        "le",
        "tte"
      ],
      [
        "in",
        "ks"
      ],
      [
        "in",
        "el"
      ],
      [
        "at",
        "tri"
      ],
      [
        "er",
        "s"
      ],
      [
        "er",
        "ent"
      ],
      [
        "en",
        "fo"
      ],
      [
        "en",
        "code"
      ],
      [
        "en",
        "sion"
      ],
      [
        "en",
        "velo"
      ],
      [
        "pl",
        "an"
      ],
      [
        "pl",
        "us"
      ],
      [
        "am",
        "e"
      ],
      [
        "ex",
        "port"
      ],
      [
        "oc",
        "svm"
      ],
      [
        "se",
        "con"
      ],
      [
        "se",
        "lect"
      ],
      [
        "st",
        "ash"
      ],
      [
        "doc",
        "ument"
      ],
      [
        "re",
        "ing"
      ],
      [
        "re",
        "tu"
      ],
      [
        "re",
        "cwarn"
      ],
      [
        "re",
        "alm"
      ],
      [
        "de",
        "mo"
      ],
      [
        "de",
        "pre"
      ],
      [
        "an",
        "t"
      ],
      [
        "an",
        "ts"
      ],
      [
        "init",
        "ial"
      ],
      [
        "ap",
        "ters"
      ],
      [
        "co",
        "in"
      ],
      [
        "co",
        "st"
      ],
      [
        "co",
        "ver"
      ],
      [
        "ot",
        "str"
      ],
      [
        "plot",
        "ting"
      ],
      [
        "par",
        "sing"
      ],
      [
        "par",
        "ser"
      ],
      [
        "ct",
        "ive"
      ],
      [
        "ext",
        "mat"
      ],
      [
        "ext",
        "ension"
      ],
      [
        "ust",
        "ed"
      ],
      [
        "com",
        "put"
      ],
      [
        "con",
        "stra"
      ],
      [
        "di",
        "m"
      ],
      [
        "data",
        "fr"
      ],
      [
        "data",
        "structures"
      ],
      [
        "pon",
        "ly"
      ],
      [
        "bo",
        "un"
      ],
      [
        "bo",
        "otstr"
      ],
      [
        "ic",
        "k"
      ],
      [
        "ad",
        "d"
      ],
      [
        "ad",
        "min"
      ],
      [
        "ad",
        "apters"
      ],
      [
        "ear",
        "ly"
      ],
      [
        "tu",
        "re"
      ],
      [
        "ent",
        "ial"
      ],
      [
        "om",
        "ap"
      ],
      [
        "depend",
        "s"
      ],
      [
        "ag",
        "er"
      ],
      [
        "ag",
        "gres"
      ],
      [
        "un",
        "king"
      ],
      [
        "un",
        "rais"
      ],
      [
        "path",
        "s"
      ],
      [
        "path",
        "lib"
      ],
      [
        "per",
        "f"
      ],
      [
        "per",
        "mal"
      ],
      [
        "per",
        "ties"
      ],
      [
        "nal",
        "s"
      ],
      [
        "ba",
        "bility"
      ],
      [
        "sv",
        "c"
      ],
      [
        "ti",
        "lfor"
      ],
      [
        "class",
        "es"
      ],
      [
        "class",
        "ical"
      ],
      [
        "met",
        "ho"
      ],
      [
        "array",
        "funcs"
      ],
      [
        "su",
        "mmary"
      ],
      [
        "ist",
        "ical"
      ],
      [
        "ist",
        "ency"
      ],
      [
        "fast",
        "ica"
      ],
      [
        "for",
        "ward"
      ],
      [
        "is",
        "y"
      ],
      [
        "is",
        "omap"
      ],
      [
        "ul",
        "ar"
      ],
      [
        "ma",
        "sk"
      ],
      [
        "th",
        "and"
      ],
      [
        "th",
        "ir"
      ],
      [
        "fe",
        "ed"
      ],
      [
        "ur",
        "l"
      ],
      [
        "pre",
        "tation"
      ],
      [
        "datase",
        "t"
      ],
      [
        "cal",
        "lable"
      ],
      [
        "cal",
        "ifor"
      ],
      [
        "te",
        "mp"
      ],
      [
        "te",
        "rion"
      ],
      [
        "ch",
        "unking"
      ],
      [
        "form",
        "feed"
      ],
      [
        "01",
        "5"
      ],
      [
        "ib",
        "atch"
      ],
      [
        "multi",
        "label"
      ],
      [
        "mon",
        "key"
      ],
      [
        "stat",
        "istical"
      ],
      [
        "lea",
        "st"
      ],
      [
        "hist",
        "ogram"
      ],
      [
        "pro",
        "perties"
      ],
      [
        "vari",
        "ate"
      ],
      [
        "man",
        "ager"
      ],
      [
        "sub",
        "tests"
      ],
      [
        "mani",
        "pul"
      ],
      [
        "px",
        "i"
      ],
      [
        "ho",
        "using"
      ],
      [
        "du",
        "mm"
      ],
      [
        "wor",
        "d"
      ],
      [
        "pa",
        "ste"
      ],
      [
        "col",
        "lection"
      ],
      [
        "ive",
        "tti"
      ],
      [
        "ment",
        "wise"
      ],
      [
        "classifi",
        "er"
      ],
      [
        "cep",
        "tance"
      ],
      [
        "min",
        "i"
      ],
      [
        "min",
        "ibatch"
      ],
      [
        "wri",
        "ter"
      ],
      [
        "fix",
        "es"
      ],
      [
        "ell",
        "ip"
      ],
      [
        "gro",
        "wer"
      ],
      [
        "able",
        "exception"
      ],
      [
        "no",
        "isy"
      ],
      [
        "sent",
        "inel"
      ],
      [
        "new",
        "ton"
      ],
      [
        "search",
        "ing"
      ],
      [
        "async",
        "io"
      ],
      [
        "validation",
        "error"
      ],
      [
        "random",
        "ized"
      ],
      [
        "ol",
        "ivetti"
      ],
      [
        "setu",
        "ponly"
      ],
      [
        "faul",
        "thand"
      ],
      [
        "issu",
        "es"
      ],
      [
        "cy",
        "path"
      ],
      [
        "hash",
        "ing"
      ],
      [
        "mur",
        "Hash"
      ],
      [
        "split",
        "ting"
      ],
      [
        "split",
        "ter"
      ],
      [
        "cre",
        "ation"
      ],
      [
        "fit",
        "ting"
      ],
      [
        "fit",
        "ted"
      ],
      [
        "sing",
        "le"
      ],
      [
        "skip",
        "ping"
      ],
      [
        "sequ",
        "ential"
      ],
      [
        "step",
        "wise"
      ],
      [
        "defaul",
        "ts"
      ],
      [
        "comple",
        "xity"
      ],
      [
        "setup",
        "plan"
      ],
      [
        "but",
        "es"
      ],
      [
        "non",
        "e"
      ],
      [
        "non",
        "python"
      ],
      [
        "ob",
        "je"
      ],
      [
        "the",
        "me"
      ],
      [
        "the",
        "il"
      ],
      [
        "zer",
        "s"
      ],
      [
        "inter",
        "pretation"
      ],
      [
        "ac",
        "ceptance"
      ],
      [
        "den",
        "se"
      ],
      [
        "den",
        "ois"
      ],
      [
        "emp",
        "iric"
      ],
      [
        "lf",
        "w"
      ],
      [
        "pd",
        "own"
      ],
      [
        "ider",
        "ed"
      ],
      [
        "fact",
        "or"
      ],
      [
        "uni",
        "variate"
      ],
      [
        "hello",
        "world"
      ],
      [
        "packag",
        "es"
      ],
      [
        "terminal",
        "writer"
      ],
      [
        "ci",
        "rc"
      ],
      [
        "cap",
        "ture"
      ],
      [
        "kd",
        "dcu"
      ],
      [
        "moc",
        "k"
      ],
      [
        "moc",
        "king"
      ],
      [
        "pass",
        "ive"
      ],
      [
        "pass",
        "word"
      ],
      [
        "sh",
        "or"
      ],
      [
        "sess",
        "ion"
      ],
      [
        "sess",
        "ions"
      ],
      [
        "tag",
        "s"
      ],
      [
        "exp",
        "ans"
      ],
      [
        "exp",
        "ression"
      ],
      [
        "ang",
        "le"
      ],
      [
        "scal",
        "ing"
      ],
      [
        "cons",
        "istency"
      ],
      [
        "cons",
        "idered"
      ],
      [
        "diff",
        "erent"
      ],
      [
        "fail",
        "ures"
      ],
      [
        "optimi",
        "ze"
      ],
      [
        "optimi",
        "zers"
      ],
      [
        "cache",
        "provider"
      ],
      [
        "help",
        "config"
      ],
      [
        "handler",
        "s"
      ],
      [
        "discrimin",
        "ator"
      ],
      [
        "discrimin",
        "ant"
      ],
      [
        "local",
        "ly"
      ],
      [
        "stack",
        "ing"
      ],
      [
        "partition",
        "er"
      ],
      [
        "40",
        "9"
      ],
      [
        "cs",
        "graph"
      ],
      [
        "cate",
        "gori"
      ],
      [
        "sig",
        "nals"
      ],
      [
        "top",
        "ic"
      ],
      [
        "inst",
        "ance"
      ],
      [
        "ere",
        "pr"
      ],
      [
        "star",
        "lette"
      ],
      [
        "stop",
        "ping"
      ],
      [
        "rea",
        "ch"
      ],
      [
        "repor",
        "ts"
      ],
      [
        "cov",
        "type"
      ],
      [
        "bound",
        "ary"
      ],
      [
        "thread",
        "exception"
      ],
      [
        "multin",
        "odes"
      ],
      [
        "trun",
        "cated"
      ],
      [
        "transl",
        "ate"
      ],
      [
        "duplic",
        "ate"
      ],
      [
        "assert",
        "rewrite"
      ],
      [
        "wrapp",
        "ed"
      ],
      [
        "elastic",
        "net"
      ],
      [
        "inheri",
        "ted"
      ],
      [
        "progress",
        "bar"
      ],
      [
        "Mur",
        "murHash"
      ],
      [
        "bag",
        "ging"
      ],
      [
        "bun",
        "ch"
      ],
      [
        "cri",
        "terion"
      ],
      [
        "dro",
        "pdown"
      ],
      [
        "ele",
        "mentwise"
      ],
      [
        "find",
        "paths"
      ],
      [
        "gi",
        "ven"
      ],
      [
        "junit",
        "xml"
      ],
      [
        "ran",
        "king"
      ],
      [
        "saf",
        "erepr"
      ],
      [
        "whe",
        "els"
      ],
      [
        "wcwid",
        "th"
      ],
      [
        "escap",
        "e"
      ],
      [
        "lega",
        "cypath"
      ],
      [
        "attri",
        "butes"
      ],
      [
        "envelo",
        "pe"
      ],
      [
        "secon",
        "d"
      ],
      [
        "reing",
        "old"
      ],
      [
        "retu",
        "rn"
      ],
      [
        "depre",
        "cation"
      ],
      [
        "extmat",
        "h"
      ],
      [
        "comput",
        "ed"
      ],
      [
        "constra",
        "ints"
      ],
      [
        "datafr",
        "ame"
      ],
      [
        "boun",
        "ds"
      ],
      [
        "bootstr",
        "ap"
      ],
      [
        "aggres",
        "sive"
      ],
      [
        "unrais",
        "ableexception"
      ],
      [
        "permal",
        "inks"
      ],
      [
        "tilfor",
        "d"
      ],
      [
        "thir",
        "d"
      ],
      [
        "califor",
        "nia"
      ],
      [
        "monkey",
        "patch"
      ],
      [
        "manipul",
        "ation"
      ],
      [
        "dumm",
        "y"
      ],
      [
        "paste",
        "bin"
      ],
      [
        "ellip",
        "tic"
      ],
      [
        "faulthand",
        "ler"
      ],
      [
        "denois",
        "ing"
      ],
      [
        "empiric",
        "al"
      ],
      [
        "kddcu",
        "p"
      ],
      [
        "categori",
        "cal"
      ]
    ]
  }
}