{
    "analysis": 1046,
    "010": 707,
    "eration": 1089,
    "mal": 880,
    "ial": 658,
    "dataclasses": 428,
    "subtests": 1595,
    "ad": 161,
    "task": 613,
    "generator": 1328,
    "cont": 764,
    "he": 140,
    "var": 330,
    "006": 318,
    "back": 341,
    "anced": 392,
    "models": 213,
    "funcs": 1023,
    "isu": 1206,
    "metaestimators": 1137,
    "encoders": 1339,
    "imput": 542,
    "cv": 1195,
    "blueprintapp": 1164,
    "word": 1600,
    "runner": 1361,
    "multiple": 511,
    "dates": 914,
    "sg": 420,
    "alg": 822,
    "xml": 1482,
    "ument": 1475,
    "assert": 1325,
    "graph": 543,
    "bin": 966,
    "61": 1416,
    "tr": 329,
    "requ": 150,
    "main": 327,
    "validate": 921,
    "means": 489,
    "extraction": 573,
    "approx": 796,
    "mis": 684,
    "o": 35,
    "requests": 425,
    "tasks": 791,
    "iterative": 1098,
    "handling": 582,
    "plan": 1500,
    "rip": 141,
    "ne": 148,
    "output": 735,
    "aly": 897,
    "factor": 1655,
    "isomap": 1570,
    "otstr": 1522,
    "gin": 1441,
    "ise": 321,
    "cache": 1136,
    "008": 382,
    "free": 971,
    "return": 1731,
    "cri": 1427,
    "j": 30,
    "ils": 128,
    "ration": 611,
    "permutation": 1048,
    "circ": 1660,
    "required": 741,
    "cors": 1040,
    "extmath": 1733,
    "transl": 1321,
    "disc": 724,
    "boost": 272,
    "kernels": 1144,
    "housing": 1598,
    "duplicate": 1706,
    "ans": 264,
    "ition": 197,
    "oauth": 661,
    "rce": 1093,
    "chunking": 1583,
    "early": 1542,
    "hash": 747,
    "ber": 871,
    "yes": 821,
    "to": 408,
    "x": 44,
    "classes": 1560,
    "shift": 1395,
    "but": 870,
    "fix": 488,
    "inherited": 1710,
    "ce": 168,
    "par": 100,
    "mid": 452,
    "or": 103,
    "[PAD]": 0,
    "xity": 1237,
    "dle": 448,
    "newton": 1616,
    "generate": 547,
    "mode": 108,
    "ary": 1240,
    "split": 800,
    "confusion": 1305,
    "run": 889,
    "ag": 182,
    "rer": 1467,
    "ous": 531,
    "isolation": 1300,
    "header": 300,
    "only": 824,
    "ia": 1443,
    "ware": 456,
    "log": 493,
    "kmeans": 683,
    "tut": 60,
    "categori": 1691,
    "ib": 302,
    "zed": 1238,
    "rect": 421,
    "us": 200,
    "n": 34,
    "decision": 1104,
    "local": 1167,
    "escape": 1725,
    "ync": 617,
    "sor": 816,
    "compat": 298,
    "yield": 956,
    "custom": 233,
    "arra": 212,
    "pd": 980,
    "as": 117,
    "88": 1417,
    "precision": 1349,
    "se": 77,
    "spar": 435,
    "call": 333,
    "ex": 74,
    "fields": 864,
    "ward": 1018,
    "ression": 423,
    "gpc": 876,
    "reports": 1699,
    "stacking": 1687,
    "secu": 229,
    "transformer": 954,
    "ditional": 368,
    "ep": 553,
    "ocks": 759,
    "self": 1257,
    "ass": 158,
    "00": 79,
    "code": 308,
    "paralle": 1275,
    "rion": 1488,
    "ligh": 344,
    "onic": 758,
    "din": 1198,
    "searching": 1617,
    "ular": 1571,
    "column": 1141,
    "clients": 671,
    "tutorial": 62,
    "tra": 818,
    "fe": 252,
    "agger": 623,
    "ling": 555,
    "path": 185,
    "at": 65,
    "ql": 559,
    "ext": 118,
    "terion": 1582,
    "centroid": 1373,
    "ved": 1478,
    "estim": 563,
    "knn": 1449,
    "a": 21,
    "qu": 112,
    "string": 760,
    "stringified": 1031,
    "repr": 537,
    "zers": 1646,
    "cre": 805,
    "computed": 1734,
    "mutual": 1350,
    "websoc": 639,
    "mentwise": 1604,
    "ont": 687,
    "structures": 946,
    "diff": 1114,
    "cli": 400,
    "any": 1270,
    "om": 167,
    "quad": 1279,
    "session": 1668,
    "gpr": 746,
    "arpack": 1485,
    "integration": 499,
    "binning": 1365,
    "raises": 1170,
    "i": 29,
    "ive": 432,
    "bui": 501,
    "lect": 508,
    "scopes": 939,
    "collection": 1602,
    "ori": 59,
    "ifor": 1445,
    "mes": 1453,
    "ery": 186,
    "zer": 896,
    "vector": 1158,
    "words": 1138,
    "example": 164,
    "le": 55,
    "sim": 1223,
    "new": 597,
    "debug": 831,
    "bounds": 1737,
    "ight": 766,
    "8": 16,
    "exception": 603,
    "ment": 433,
    "ating": 1250,
    "ap": 92,
    "tag": 1077,
    "polynomial": 1042,
    "/": 7,
    "fastica": 1567,
    "strict": 860,
    "wise": 615,
    "du": 406,
    "emp": 970,
    "lable": 730,
    "empiric": 1651,
    "ridge": 699,
    "af": 869,
    "updates": 934,
    "obje": 1643,
    "export": 1503,
    "Mur": 1420,
    "hello": 1020,
    "fixture": 574,
    "man": 363,
    "moc": 1069,
    "logging": 937,
    "mas": 609,
    "ples": 99,
    "bearer": 740,
    "annotation": 1346,
    "top": 1231,
    "regression": 455,
    "elastic": 1384,
    "benc": 147,
    "java": 1065,
    "sam": 560,
    "stru": 625,
    "lookup": 1406,
    "old": 1459,
    "b": 22,
    "ion": 73,
    "transform": 851,
    "inity": 1271,
    "selection": 230,
    "erent": 1495,
    "covtype": 1700,
    "packages": 1658,
    "ed": 216,
    "re": 83,
    "mat": 590,
    "cwid": 1431,
    "bicluster": 788,
    "fact": 1003,
    "step": 829,
    "erative": 827,
    "samples": 941,
    "star": 1260,
    "splitting": 1628,
    "tation": 1473,
    "te": 267,
    "end": 373,
    "rity": 228,
    "in": 56,
    "dition": 360,
    "backs": 767,
    "findpaths": 1718,
    "ized": 1447,
    "optimize": 1679,
    "40": 1187,
    "bluep": 852,
    "_.": 96,
    "select": 1506,
    "parti": 833,
    "learn": 67,
    "ctx": 1277,
    "weighted": 1353,
    "steps": 1036,
    "faulthandler": 1750,
    "ations": 154,
    "request": 155,
    "check": 672,
    "ze": 663,
    "estimat": 602,
    "maint": 1133,
    "parameter": 1155,
    "pc": 813,
    "linkage": 1355,
    "004": 258,
    "supervised": 477,
    "enc": 111,
    "rid": 565,
    "al": 52,
    "put": 370,
    "forms": 577,
    "spl": 754,
    "route": 524,
    "ga": 407,
    "authorization": 1139,
    "gori": 1442,
    "decomposition": 289,
    "unking": 1549,
    "nu": 338,
    "customdirectory": 801,
    "fig": 247,
    "aggl": 840,
    "debugging": 953,
    "preprocess": 375,
    "blog": 1425,
    "iric": 1444,
    "bed": 1192,
    "play": 442,
    "target": 794,
    "murmurhash": 1352,
    "default": 1037,
    "ss": 389,
    "tron": 1016,
    "datastructures": 1534,
    "not": 659,
    "discreti": 1029,
    "translate": 1705,
    "wheels": 1723,
    "fastapi": 270,
    "simple": 1392,
    "conne": 997,
    "sv": 199,
    "non": 882,
    "sess": 1075,
    "external": 209,
    "testmodule": 1239,
    "stre": 536,
    "mon": 314,
    "gi": 1440,
    "ence": 721,
    "setu": 718,
    "roid": 1285,
    "ri": 53,
    "ential": 1544,
    "mental": 633,
    "wrapp": 1376,
    "classical": 1561,
    "distances": 1041,
    "int": 988,
    "sessions": 1669,
    "fitted": 1632,
    "sol": 985,
    "setupplan": 1639,
    "provider": 1316,
    "cts": 1428,
    "els": 1436,
    "gb": 1439,
    "on": 57,
    "add": 1539,
    "thread": 1301,
    "sp": 662,
    "bel": 651,
    "2": 10,
    "comput": 1530,
    "lo": 251,
    "enfo": 1496,
    "starlette": 1696,
    "doctest": 1096,
    "warnings": 793,
    "manager": 1594,
    "oper": 339,
    "envelo": 1499,
    "handlers": 1683,
    "conver": 1281,
    "h": 28,
    "affinity": 1381,
    "dia": 1282,
    "hy": 1204,
    "__.": 97,
    "segment": 1258,
    "ableexception": 1613,
    "ner": 711,
    "libsvm": 631,
    "feed": 1575,
    ".": 6,
    "orization": 1087,
    "static": 930,
    "whe": 1480,
    "routing": 929,
    "plus": 1501,
    "templ": 598,
    "secon": 1505,
    "bootstrap": 1738,
    "blocks": 785,
    "dinate": 1383,
    "none": 1641,
    "structured": 1370,
    "5": 13,
    "comple": 836,
    "rfe": 1073,
    "duplic": 1322,
    "ef": 1434,
    "per": 188,
    "ml": 311,
    "mock": 1663,
    "dim": 1532,
    "helloworld": 1657,
    "metric": 273,
    "ator": 989,
    "json": 469,
    "cust": 232,
    "auth": 414,
    "ussi": 440,
    "faulthand": 1623,
    "prior": 1465,
    "roup": 917,
    "pen": 123,
    "dataset": 1578,
    "argcomple": 1330,
    "rch": 717,
    "k": 31,
    "hdbscan": 655,
    "ange": 994,
    "javascript": 1178,
    "typedef": 1326,
    "timi": 1127,
    "mar": 178,
    "creation": 1630,
    "line": 765,
    "nest": 434,
    "ate": 278,
    "query": 189,
    "writer": 1609,
    "regex": 1319,
    "-": 5,
    "depends": 1546,
    "set": 325,
    "fla": 349,
    "packaging": 1369,
    "ellip": 1611,
    "templates": 861,
    "hoo": 734,
    "loc": 879,
    "funcarg": 698,
    "sparse": 473,
    "tion": 207,
    "gl": 504,
    "tance": 1229,
    "date": 667,
    "envelope": 1728,
    "randomized": 1620,
    "prefix": 1128,
    "basic": 938,
    "detection": 1174,
    "ump": 1476,
    "fft": 1021,
    "read": 1100,
    "backgro": 778,
    "patch": 1116,
    "perceptron": 1405,
    "war": 380,
    "ref": 1099,
    "la": 253,
    "extmat": 1527,
    "ang": 1105,
    "pre": 256,
    "hal": 809,
    "bl": 429,
    "gment": 1203,
    "indexing": 1169,
    "kddcu": 1662,
    "stream": 550,
    "mur": 751,
    "ly": 351,
    "001": 120,
    "ost": 250,
    "tree": 306,
    "rix": 1084,
    "vs": 507,
    "sh": 1074,
    "databases": 705,
    "u": 41,
    "usion": 1295,
    "adapters": 1541,
    "test": 50,
    "ving": 892,
    "progres": 1314,
    "unittest": 638,
    "que": 1278,
    "murhash": 1351,
    "include": 1039,
    "network": 700,
    "helper": 634,
    "thon": 275,
    "succ": 1007,
    "cation": 430,
    "multioutput": 1013,
    "rea": 1265,
    "wr": 1082,
    "cies": 1196,
    "dient": 304,
    "sklearn": 68,
    "memory": 1118,
    "elasticnet": 1709,
    "det": 1269,
    "encode": 1497,
    "ties": 1296,
    "pla": 399,
    "ting": 315,
    "train": 1035,
    "cated": 1429,
    "ted": 1078,
    "func": 529,
    "missing": 1342,
    "wri": 485,
    "responses": 464,
    "weight": 780,
    "benchmarks": 203,
    "pp": 713,
    "exp": 1091,
    "oc": 75,
    "bise": 1193,
    "ifi": 378,
    "freeze": 1044,
    "passive": 1665,
    "oob": 1462,
    "pon": 137,
    "coordinate": 1402,
    "map": 1454,
    "ative": 826,
    "inte": 486,
    "num": 599,
    "autou": 1318,
    "high": 372,
    "olation": 1214,
    "pydantic": 703,
    "permalinks": 1741,
    "internal": 1172,
    "approxim": 950,
    "structure": 1027,
    "optional": 366,
    "002": 162,
    "elementwise": 1717,
    "un": 184,
    "security": 231,
    "discriminant": 1685,
    "exing": 1092,
    "ask": 479,
    "solver": 1045,
    "logistic": 787,
    "digits": 646,
    "web": 512,
    "tmp": 1079,
    "lin": 144,
    "datafr": 1533,
    "boundary": 1701,
    "orial": 61,
    "typedefs": 1410,
    "visu": 1235,
    "fun": 417,
    "coin": 1519,
    "release": 342,
    "10": 89,
    "xture": 453,
    "repe": 1266,
    "depre": 1514,
    "array": 215,
    "customdirect": 769,
    "14": 1414,
    "settings": 394,
    "analy": 995,
    "doc": 81,
    "bear": 708,
    "document": 1508,
    "omp": 1122,
    "with": 952,
    "409": 1689,
    "views": 1171,
    "si": 345,
    "vendor": 1397,
    "skip": 825,
    "cal": 266,
    "ra": 114,
    "modul": 910,
    "part": 996,
    "quanti": 1109,
    "sub": 383,
    "numeric": 471,
    "compo": 255,
    "overrides": 1380,
    "ric": 227,
    "dependence": 920,
    "ven": 1477,
    "meta": 403,
    "third": 1743,
    "types": 312,
    "dumm": 1599,
    "direct": 424,
    "mo": 104,
    "annotations": 1347,
    "lof": 1010,
    "after": 1360,
    "be": 589,
    "prec": 731,
    "ble": 176,
    "terminalwriter": 1659,
    "compar": 390,
    "ation": 102,
    "ft": 1200,
    "bisect": 1382,
    "unsupervised": 1292,
    "depend": 172,
    "col": 422,
    "wor": 410,
    "usted": 1529,
    "cookie": 404,
    "013": 927,
    "first": 763,
    "ual": 1232,
    "alm": 1486,
    "authentication": 1140,
    "ager": 1547,
    "skipping": 1634,
    "variance": 385,
    "predict": 847,
    "dan": 680,
    "tu": 165,
    "di": 132,
    "embedding": 1413,
    "by": 650,
    "parallel": 1403,
    "match": 855,
    "ane": 509,
    "ste": 1259,
    "plugins": 738,
    "pls": 1254,
    "wsgi": 955,
    "ses": 462,
    "[UNK]": 1,
    "connect": 1176,
    "spectral": 931,
    "termin": 1014,
    "tmpdir": 1375,
    "encoder": 585,
    "lity": 1068,
    "mpl": 591,
    "projection": 1315,
    "min": 482,
    "ral": 888,
    "configure": 772,
    "gro": 530,
    "elliptic": 1749,
    "inf": 899,
    "linalg": 838,
    "change": 1012,
    "nost": 660,
    "sgd": 784,
    "rimin": 1085,
    "zen": 755,
    "ff": 503,
    "recall": 1267,
    "bayesian": 1356,
    "tar": 715,
    "bayes": 842,
    "04": 1185,
    "search": 618,
    "behind": 645,
    "li": 1067,
    "02": 478,
    "rior": 1242,
    "cacheprovider": 1681,
    "estimators": 857,
    "ransac": 1391,
    "ocsvm": 1504,
    "utils": 129,
    "kernel": 548,
    "topic": 1693,
    "reference": 1379,
    "entication": 1121,
    "assertion": 472,
    "torch": 933,
    "kde": 974,
    "text": 562,
    "overri": 1168,
    "lars": 1387,
    "statistical": 1589,
    "svd": 1125,
    "and": 259,
    "label": 670,
    "ison": 845,
    "valid": 192,
    "ers": 1494,
    "admin": 1540,
    "supervise": 468,
    "arg": 517,
    "fit": 807,
    "tags": 1670,
    "checks": 1143,
    "cor": 908,
    "distri": 1283,
    "celer": 1002,
    "erence": 1253,
    "net": 490,
    "multilabel": 1587,
    "linear": 173,
    "gen": 449,
    "H": 18,
    "shor": 1667,
    "nested": 445,
    "agglomerative": 1359,
    "locally": 1686,
    "separating": 1331,
    "bootstr": 1537,
    "f": 26,
    "expression": 1672,
    "collect": 546,
    "hin": 451,
    "extending": 1153,
    "px": 388,
    "M": 19,
    "cu": 170,
    "op": 292,
    "scan": 540,
    "ernal": 196,
    "inks": 1491,
    "e": 25,
    "splitter": 1629,
    "subdir": 932,
    "prepare": 1304,
    "vel": 771,
    "015": 1585,
    "nodes": 1148,
    "neighbors": 285,
    "permut": 1005,
    "11": 1053,
    "metadata": 497,
    "helpers": 736,
    "validationerror": 1619,
    "den": 969,
    "ul": 240,
    "t": 40,
    "format": 1129,
    "cision": 1060,
    "bagging": 1713,
    "feature": 276,
    "cost": 1520,
    "csgraph": 1690,
    "9": 17,
    "exceptions": 1151,
    "miscellaneous": 587,
    "links": 1117,
    "thresho": 925,
    "openml": 492,
    "monkey": 1588,
    "ilable": 811,
    "ica": 1119,
    "apters": 1518,
    "ali": 564,
    "pdown": 1653,
    "age": 355,
    "fold": 384,
    "4": 12,
    "wid": 1236,
    "xtu": 179,
    "metho": 1562,
    "highligh": 376,
    "met": 214,
    "co": 93,
    "router": 579,
    "configur": 347,
    "dul": 872,
    "sorting": 1034,
    "svm": 223,
    "available": 858,
    "datase": 262,
    "tilfor": 1559,
    "multinodes": 1703,
    "v": 42,
    "pul": 1464,
    "handler": 1145,
    "sansio": 1393,
    "port": 498,
    "defaul": 830,
    "forward": 1568,
    "ic": 152,
    "rout": 316,
    "infinite": 1362,
    "terminal": 1050,
    "translation": 600,
    "halving": 951,
    "truncated": 1704,
    "src": 78,
    "functions": 1364,
    "po": 226,
    "cliapp": 782,
    "meric": 465,
    "sc": 115,
    "module": 704,
    "mismatch": 859,
    "ity": 689,
    "head": 299,
    "und": 669,
    "inspection": 446,
    "0": 8,
    "des": 337,
    "ba": 195,
    "operation": 348,
    "tti": 1474,
    "body": 201,
    "hi": 808,
    "templat": 701,
    "threadexception": 1702,
    "fixtures": 257,
    "assertrewrite": 1707,
    "minibatch": 1608,
    "el": 343,
    "ication": 1120,
    "js": 297,
    "cpp": 968,
    "cons": 1112,
    "ipy": 1064,
    "ger": 396,
    "mut": 750,
    "description": 641,
    "nca": 977,
    "appro": 726,
    "01": 295,
    "jection": 1166,
    "omial": 918,
    "params": 122,
    "tests": 58,
    "plic": 336,
    "playwright": 647,
    "cd": 1426,
    "grower": 1612,
    "param": 113,
    "openapi": 274,
    "rbm": 1217,
    "low": 1011,
    "bit": 1055,
    "oring": 1249,
    "20": 962,
    "Hash": 1419,
    "itor": 1264,
    "isy": 1569,
    "dete": 993,
    "dependencies": 249,
    "warn": 593,
    "nomial": 978,
    "rintapp": 1161,
    "hu": 681,
    "istency": 1566,
    "pkg": 982,
    "pair": 783,
    "plot": 98,
    "response": 159,
    "neur": 571,
    "incre": 1086,
    "lust": 1450,
    "outli": 1335,
    "ar": 51,
    "ran": 1468,
    "pxd": 415,
    "hist": 334,
    "plug": 665,
    "examples": 101,
    "aff": 1190,
    "given": 1719,
    "pathlib": 1552,
    "tri": 890,
    "orizer": 1088,
    "support": 844,
    "inner": 901,
    "sk": 64,
    "ind": 898,
    "open": 217,
    "aggres": 1548,
    "bench": 149,
    "http": 523,
    "ies": 219,
    "voting": 1180,
    "clu": 835,
    "struct": 676,
    "me": 145,
    "wcwid": 1481,
    "nonpython": 1642,
    "stop": 1262,
    "inel": 1492,
    "califor": 1580,
    "odes": 1461,
    "same": 940,
    "mean": 1287,
    "callable": 1579,
    "keywords": 1334,
    "base": 356,
    "pyx": 263,
    "sgroup": 936,
    "[SEP]": 3,
    "saferepr": 1722,
    "an": 87,
    "tilford": 1742,
    "legacypath": 1726,
    "solvers": 1371,
    "summary": 1564,
    "arrayfuncs": 1563,
    "visualization": 1398,
    "clustering": 1124,
    "agnostic": 679,
    "discriminator": 1684,
    "stash": 1507,
    "lection": 220,
    "nearest": 1000,
    "feat": 269,
    "am": 72,
    "bal": 965,
    "compare": 496,
    "huber": 1344,
    "gra": 296,
    "lar": 1207,
    "wer": 1479,
    "learning": 990,
    "reti": 992,
    "[CLS]": 2,
    "bag": 1423,
    "bar": 1191,
    "son": 1218,
    "nc": 610,
    "group": 1024,
    "rst": 753,
    "initial": 1517,
    "pydan": 686,
    "db": 502,
    "cluster": 181,
    "parameters": 1156,
    "ces": 652,
    "exam": 88,
    "yie": 895,
    "iforest": 1446,
    "neigh": 281,
    "discrimin": 1157,
    "alize": 1337,
    "apps": 491,
    "ash": 595,
    "noisy": 1614,
    "d": 24,
    "fo": 301,
    "xy": 616,
    "empty": 1366,
    "ibatch": 1586,
    "hyperplane": 1386,
    "gration": 495,
    "ava": 649,
    "extra": 193,
    "ti": 206,
    "ctive": 1526,
    "ts": 105,
    "il": 682,
    "vectorizer": 1159,
    "parsing": 1524,
    "key": 545,
    "mocking": 1664,
    "ir": 657,
    "stra": 1261,
    "able": 551,
    "roc": 983,
    "attri": 1493,
    "agglom": 868,
    "least": 1590,
    "find": 1438,
    "classifier": 1605,
    "boun": 1536,
    "stoc": 1095,
    "webhooks": 1022,
    "cl": 116,
    "perf": 1553,
    "python": 303,
    "sing": 815,
    "l": 32,
    "california": 1744,
    "ponly": 1535,
    "help": 1142,
    "dask": 873,
    "ol": 712,
    "liblinear": 733,
    "unique": 1368,
    "over": 885,
    "less": 1452,
    "demo": 1513,
    "fil": 268,
    "ensem": 221,
    "lasso": 675,
    "ctral": 912,
    "asyncio": 1618,
    "saf": 1471,
    "spe": 352,
    "vider": 1234,
    "hierarchical": 1184,
    "theme": 1644,
    "dir": 723,
    "zation": 594,
    "grid": 1062,
    "digest": 1284,
    "aut": 369,
    "headers": 848,
    "mmar": 1208,
    "html": 522,
    "ct": 110,
    "context": 915,
    "ela": 1199,
    "routers": 1338,
    "ck": 246,
    "light": 1134,
    "sion": 322,
    "optimizers": 1680,
    "cs": 1194,
    "istical": 1565,
    "butes": 1640,
    "time": 1006,
    "dummy": 1747,
    "separate": 640,
    "sw": 533,
    "ering": 874,
    "ated": 566,
    "ick": 1538,
    "cro": 653,
    "stack": 1173,
    "asv": 596,
    "cur": 439,
    "instance": 1694,
    "databas": 692,
    "progress": 1408,
    "ding": 1061,
    "vect": 729,
    "pprint": 1154,
    "message": 1179,
    "playwri": 635,
    "arch": 518,
    "ist": 225,
    "error": 470,
    "sql": 685,
    "lega": 1489,
    "errors": 525,
    "stic": 905,
    "issue": 863,
    "kg": 973,
    "idered": 1654,
    "ure": 244,
    "03": 588,
    "properties": 1592,
    "dis": 691,
    "dense": 1649,
    "ping": 981,
    "ut": 54,
    "front": 737,
    "angle": 1673,
    "99": 1418,
    "impute": 644,
    "bigger": 674,
    "com": 125,
    "networks": 1149,
    "empirical": 1752,
    "classification": 474,
    "alization": 1336,
    "clust": 175,
    "reach": 1698,
    "sco": 515,
    "bm": 1054,
    "de": 85,
    "vend": 1233,
    "ro": 134,
    "forest": 626,
    "ription": 622,
    "failures": 1678,
    "pervise": 467,
    "embed": 1354,
    "attributes": 1727,
    "codes": 909,
    "optics": 1407,
    "constra": 1531,
    "fa": 169,
    "vot": 1081,
    "directly": 695,
    "vie": 986,
    "erver": 487,
    "hashing": 1626,
    "server": 534,
    "sans": 1224,
    "lette": 1490,
    "warning": 673,
    "inter": 900,
    "er": 69,
    "ke": 361,
    "criterion": 1715,
    "password": 1666,
    "s": 39,
    "pag": 714,
    "issues": 1624,
    "05": 1052,
    "hind": 636,
    "ng": 1209,
    "propag": 732,
    "ch": 271,
    "pro": 335,
    "stat": 326,
    "variate": 1593,
    "faul": 727,
    "inst": 1243,
    "denois": 1650,
    "ors": 202,
    "umn": 1080,
    "agnost": 668,
    "out": 557,
    "/__": 95,
    "histogram": 1591,
    "z": 46,
    "configurations": 544,
    "up": 409,
    "consistency": 1675,
    "manifold": 405,
    "ture": 1543,
    "deprecated": 958,
    "dataframe": 1736,
    "ou": 884,
    "pxi": 1597,
    "frontend": 742,
    "012": 926,
    "factory": 1367,
    "rcv": 1256,
    "look": 1303,
    "cook": 346,
    "different": 1677,
    "require": 725,
    "iris": 799,
    "bytes": 945,
    "depen": 171,
    "_/__": 1188,
    "incremental": 1181,
    "ois": 1460,
    "using": 923,
    "docs": 84,
    "hand": 480,
    "ency": 1108,
    "bors": 277,
    "typ": 261,
    "nal": 190,
    "gener": 475,
    "extend": 620,
    "ain": 1421,
    "es": 47,
    "versions": 1160,
    "ton": 1472,
    "considered": 1676,
    "p": 36,
    "fitting": 1631,
    "py": 49,
    "hel": 438,
    "decompo": 287,
    "dro": 1432,
    "rc": 76,
    "numpy": 856,
    "ian": 1205,
    "inhe": 1245,
    "inclu": 902,
    "ok": 328,
    "reing": 1509,
    "ance": 238,
    "w": 43,
    "approximation": 1043,
    "pipeline": 1038,
    "ur": 254,
    "distribut": 1404,
    "kerne": 476,
    "ints": 1244,
    "ogram": 1463,
    "newsgroups": 961,
    "deprecation": 1732,
    "permal": 1554,
    "percep": 1293,
    "flask": 358,
    "birch": 1329,
    "process": 282,
    "mani": 386,
    "lea": 331,
    "monkeypatch": 1745,
    "stepwise": 1636,
    "fi": 106,
    "sequential": 1635,
    "fixes": 1610,
    "uni": 1004,
    "ler": 664,
    "item": 1097,
    "ele": 1435,
    "init": 91,
    "ld": 204,
    "vanced": 398,
    "ma": 241,
    "ents": 332,
    "tional": 365,
    "marks": 194,
    "helpconfig": 1682,
    "bo": 139,
    "pipe": 887,
    "alias": 789,
    "callbacks": 777,
    "predictor": 1357,
    "dependency": 354,
    "manipulation": 1746,
    "ght": 607,
    "rewri": 1102,
    "dataclass": 401,
    "lf": 975,
    "url": 1576,
    "sphinx": 792,
    "bun": 1424,
    "autouse": 1409,
    "ocess": 279,
    "fy": 1437,
    "rints": 1320,
    "ig": 143,
    "background": 802,
    "cov": 1272,
    "ring": 581,
    "lass": 608,
    "inspe": 436,
    "sche": 319,
    "annotated": 1348,
    "lda": 843,
    "categorical": 1754,
    "sphinxext": 866,
    "plane": 1255,
    "sition": 286,
    "coor": 1273,
    "ame": 1502,
    "tic": 535,
    "ear": 163,
    "common": 364,
    "64": 963,
    "con": 130,
    "world": 1324,
    "ui": 323,
    "annot": 720,
    "sem": 187,
    "validations": 235,
    "deprec": 907,
    "training": 1177,
    "middleware": 458,
    "ified": 1017,
    "kddcup": 1753,
    "velo": 1302,
    "mf": 976,
    "pport": 814,
    "face": 839,
    "sequ": 828,
    "rin": 381,
    "foo": 928,
    "mess": 1070,
    "newrand": 1340,
    "big": 604,
    "monotonic": 1311,
    "009": 569,
    "ory": 539,
    "seri": 1094,
    "dcu": 1433,
    "_": 20,
    "reingold": 1730,
    "th": 242,
    "essive": 1009,
    "kets": 630,
    "hub": 702,
    "redirect": 1101,
    "xunit": 1483,
    "nia": 1457,
    "content": 865,
    "scope": 854,
    "single": 1633,
    "istic": 768,
    "wit": 820,
    "kd": 1066,
    "svc": 1558,
    "fill": 494,
    "ire": 709,
    "package": 1026,
    "model": 126,
    "ision": 846,
    "fro": 606,
    "en": 70,
    "funcargs": 947,
    "005": 307,
    "excep": 568,
    "je": 878,
    "discretization": 1051,
    "arest": 987,
    "mini": 1607,
    "files": 371,
    "rans": 1216,
    "cupy": 919,
    "of": 1458,
    "cover": 1521,
    "flaskr": 1135,
    "user": 1126,
    "relea": 340,
    "scrip": 151,
    "_/": 743,
    "capture": 1661,
    "scipy": 1111,
    "sta": 991,
    "info": 757,
    "junitxml": 1720,
    "val": 177,
    "lfw": 1652,
    "normal": 1389,
    "naive": 1456,
    "pat": 138,
    "pretation": 1577,
    "type": 437,
    "aneous": 584,
    "sse": 1470,
    "aboost": 1189,
    "gaussian": 447,
    "ks": 153,
    "io": 505,
    "random": 642,
    "complexity": 1638,
    "007": 520,
    "templating": 1343,
    "show": 1394,
    "second": 1729,
    "aliases": 1033,
    "reg": 374,
    "bug": 804,
    "gr": 313,
    "expans": 1671,
    "[MASK]": 4,
    "ter": 317,
    "ver": 293,
    "for": 236,
    "tte": 1230,
    "networ": 583,
    "sentinel": 1615,
    "loss": 575,
    "recur": 719,
    "pastebin": 1748,
    "mm": 749,
    "blas": 1019,
    "1": 9,
    "boosting": 294,
    "conftest": 283,
    "bunch": 1714,
    "source": 1396,
    "github": 853,
    "ac": 964,
    "dat": 127,
    "extension": 1528,
    "nmf": 979,
    "dependenc": 174,
    "pres": 1215,
    "stri": 688,
    "interpretation": 1647,
    "paste": 1601,
    "tools": 601,
    "ty": 131,
    "ols": 558,
    "ie": 320,
    "cep": 466,
    "interface": 1363,
    "003": 183,
    "scell": 570,
    "ls": 107,
    "rint": 781,
    "update": 1323,
    "proxy": 629,
    "cate": 1197,
    "list": 481,
    "template": 1341,
    "ge": 350,
    "schemas": 628,
    "sho": 1225,
    "est": 48,
    "trun": 1313,
    "sag": 1222,
    "classifi": 441,
    "paths": 1551,
    "ht": 290,
    "async": 619,
    "glm": 697,
    "sen": 1219,
    "import": 770,
    "310": 90,
    "preprocessing": 377,
    "order": 834,
    "robust": 1115,
    "cks": 605,
    "cypath": 1625,
    "retu": 1510,
    "011": 774,
    "unraisableexception": 1740,
    "optic": 1309,
    "cython": 1030,
    "che": 459,
    "ider": 998,
    "scoring": 1280,
    "digit": 621,
    "cap": 1058,
    "unit": 510,
    "gaussi": 443,
    "blueprints": 1358,
    "scripts": 156,
    "from": 1152,
    "ess": 245,
    "class": 211,
    "aive": 1422,
    "cc": 967,
    "dleware": 457,
    "union": 841,
    "mlp": 1310,
    "ple": 136,
    "display": 739,
    "defaults": 1637,
    "ser": 1469,
    "bound": 1286,
    "rais": 913,
    "dbscan": 549,
    "escap": 1484,
    "features": 1307,
    "resho": 911,
    "bas": 514,
    "arff": 1241,
    "univariate": 1656,
    "vise": 463,
    "outlier": 1412,
    "issu": 728,
    "fast": 234,
    "sequence": 1163,
    "testserver": 1248,
    "shi": 1226,
    "conf": 260,
    "soc": 612,
    "redu": 906,
    "sive": 779,
    "denoising": 1751,
    "typing": 576,
    "iri": 748,
    "signals": 1692,
    "neural": 586,
    "uep": 819,
    "dy": 198,
    "websockets": 648,
    "formfeed": 1584,
    "tes": 817,
    "valu": 1290,
    "atch": 1251,
    "global": 1385,
    "glo": 1202,
    "19": 1186,
    "multiclass": 775,
    "mul": 291,
    "ha": 1063,
    "ree": 280,
    "cy": 744,
    "testing": 119,
    "argcomplete": 1411,
    "imputer": 1333,
    "invalid": 1246,
    "idate": 877,
    "omap": 1545,
    "frozen": 790,
    "rn": 1466,
    "erarch": 1090,
    "datasets": 265,
    "packag": 1025,
    "inheri": 1399,
    "adaboost": 1288,
    "hinx": 786,
    "comparison": 850,
    "519": 1415,
    "bi": 500,
    "wsg": 894,
    "sparsefuncs": 1327,
    "svmlight": 1299,
    "get": 580,
    "id": 135,
    "conditional": 1113,
    "pl": 71,
    "cross": 677,
    "ds": 552,
    "plugin": 678,
    "gradient": 305,
    "ances": 832,
    "aggressive": 1739,
    "ants": 1516,
    "pca": 483,
    "pytest": 180,
    "faces": 1289,
    "6": 14,
    "gres": 972,
    "rimental": 756,
    "mds": 881,
    "openid": 1297,
    "ing": 86,
    "ning": 1211,
    "partial": 867,
    "dropdown": 1716,
    "tin": 1228,
    "mnist": 1028,
    "highlights": 387,
    "parser": 1525,
    "por": 419,
    "ca": 359,
    "q": 37,
    "olivetti": 1621,
    "7": 15,
    "link": 837,
    "curve": 696,
    "docstring": 1263,
    "reduction": 957,
    "segmentation": 1400,
    "pr": 205,
    "level": 823,
    "configuration": 528,
    "mixture": 454,
    "recursion": 1345,
    "em": 806,
    "openmp": 1298,
    "eld": 745,
    "function": 935,
    "stochastic": 1378,
    "ions": 904,
    "anti": 1106,
    "va": 614,
    "dict": 521,
    "applications": 367,
    "repor": 1268,
    "ug": 484,
    "sne": 1221,
    "st": 80,
    "modules": 959,
    "pack": 632,
    "nals": 1556,
    "enco": 567,
    "fixtu": 222,
    "mask": 1572,
    "wrapped": 1708,
    "bility": 1146,
    "erepr": 1695,
    "lfor": 1451,
    "script": 1001,
    "ging": 554,
    "manipul": 1596,
    "name": 949,
    "metrics": 284,
    "partitioner": 1688,
    "separ": 519,
    "ere": 1252,
    "lib": 362,
    "tp": 516,
    "ures": 592,
    "descent": 1332,
    "bability": 1557,
    "stopping": 1697,
    "wcwidth": 1724,
    "ension": 1498,
    "semi": 572,
    "validation": 624,
    "is": 239,
    "newsgroup": 942,
    "data": 133,
    "dist": 916,
    "lation": 461,
    "king": 812,
    "cookies": 849,
    "gmm": 875,
    "su": 218,
    "ow": 1213,
    "rewrite": 1182,
    "file": 666,
    "quantile": 1183,
    "externals": 210,
    "stats": 1015,
    "tw": 1076,
    "aph": 538,
    "build": 513,
    "repeated": 1401,
    "ranking": 1721,
    "experimental": 795,
    "mark": 922,
    "calibration": 706,
    "online": 1247,
    "murHash": 1627,
    "status": 427,
    "monitor": 1312,
    "ters": 776,
    "estimator": 944,
    "own": 1390,
    "field": 762,
    "mmary": 1388,
    "graphql": 1147,
    "sis": 984,
    "der": 416,
    "cwarn": 1430,
    "mp": 506,
    "sig": 1220,
    "setup": 862,
    "pass": 1072,
    "no": 556,
    "y": 45,
    "pare": 1274,
    "version": 773,
    "m": 33,
    "compose": 627,
    "res": 109,
    "events": 444,
    "progressbar": 1711,
    "bitset": 1372,
    "we": 379,
    "ot": 94,
    "temp": 1581,
    "matrix": 1150,
    "poly": 924,
    "it": 82,
    "constraints": 1735,
    "allow": 1487,
    "recursive": 948,
    "g": 27,
    "scaling": 1674,
    "pytester": 1291,
    "tings": 393,
    "nn": 1210,
    "ction": 146,
    "lines": 999,
    "pe": 191,
    "trans": 395,
    "thir": 1574,
    "ceptance": 1606,
    "app": 157,
    "gram": 1132,
    "c": 23,
    "thand": 1573,
    "sent": 561,
    "ob": 883,
    "ivetti": 1603,
    "realm": 1512,
    "setuponly": 1622,
    "nan": 1455,
    "ell": 527,
    "number": 943,
    "pes": 886,
    "serialize": 1377,
    "pa": 418,
    "rand": 532,
    "ust": 124,
    "str": 208,
    "filter": 1306,
    "ve": 243,
    "git": 450,
    "isotonic": 1008,
    "applic": 353,
    "mory": 1071,
    "callback": 413,
    "miscell": 578,
    "agglomeration": 1165,
    "def": 1103,
    "hooks": 798,
    "successive": 1049,
    "/_": 63,
    "perties": 1555,
    "err": 324,
    "bust": 1056,
    "unrais": 1550,
    "advanced": 402,
    "nam": 752,
    "arn": 66,
    "schema": 412,
    "ical": 693,
    "r": 38,
    "hastic": 1374,
    "sou": 1227,
    "gest": 1201,
    "calib": 694,
    "multin": 1308,
    "fail": 1123,
    "junit": 1448,
    "plotting": 1523,
    "fr": 654,
    "config": 248,
    "alle": 1083,
    "inite": 1107,
    "MurmurHash": 1712,
    "scal": 1110,
    "partition": 1175,
    "ci": 1057,
    "mn": 710,
    "ho": 397,
    "enable": 903,
    "nor": 1212,
    "celery": 1047,
    "pairwise": 803,
    "image": 541,
    "ent": 166,
    "propagation": 797,
    "expe": 716,
    "respon": 142,
    "ker": 460,
    "covariance": 411,
    "vari": 357,
    "swagger": 643,
    "otonic": 761,
    "theil": 1645,
    "3": 11,
    "optimi": 1130,
    "species": 1317,
    "importance": 1032,
    "threshold": 960,
    "form": 288,
    "fixer": 637,
    "recwarn": 1511,
    "ws": 893,
    "modu": 690,
    "additional": 391,
    "hierarch": 1162,
    "014": 1131,
    "tsne": 1276,
    "ipe": 810,
    "ensemble": 224,
    "perplane": 1294,
    "cent": 1059,
    "ip": 656,
    "api": 121,
    "multi": 309,
    "igh": 160,
    "acceptance": 1648,
    "mi": 310,
    "desc": 526,
    "parame": 722,
    "im": 237,
    "asser": 426,
    "ev": 431,
    "the": 891,
    "ant": 1515
}